{
  "version": "1.0",
  "truncation": null,
  "padding": null,
  "added_tokens": [
    {
      "id": 1,
      "content": "<bos>",
      "single_word": false,
      "lstrip": false,
      "rstrip": false,
      "normalized": false,
      "special": true
    },
    {
      "id": 2,
      "content": "<eos>",
      "single_word": false,
      "lstrip": false,
      "rstrip": false,
      "normalized": false,
      "special": true
    },
    {
      "id": 3,
      "content": "<sep>",
      "single_word": false,
      "lstrip": false,
      "rstrip": false,
      "normalized": false,
      "special": true
    },
    {
      "id": 4,
      "content": "<unused0>",
      "single_word": false,
      "lstrip": false,
      "rstrip": false,
      "normalized": false,
      "special": true
    },
    {
      "id": 5,
      "content": "<unused1>",
      "single_word": false,
      "lstrip": false,
      "rstrip": false,
      "normalized": false,
      "special": true
    },
    {
      "id": 6,
      "content": "<unused2>",
      "single_word": false,
      "lstrip": false,
      "rstrip": false,
      "normalized": false,
      "special": true
    },
    {
      "id": 7,
      "content": "<unused3>",
      "single_word": false,
      "lstrip": false,
      "rstrip": false,
      "normalized": false,
      "special": true
    },
    {
      "id": 8,
      "content": "<unused4>",
      "single_word": false,
      "lstrip": false,
      "rstrip": false,
      "normalized": false,
      "special": true
    },
    {
      "id": 9,
      "content": "<unused5>",
      "single_word": false,
      "lstrip": false,
      "rstrip": false,
      "normalized": false,
      "special": true
    },
    {
      "id": 10,
      "content": "<unused6>",
      "single_word": false,
      "lstrip": false,
      "rstrip": false,
      "normalized": false,
      "special": true
    },
    {
      "id": 11,
      "content": "<unused7>",
      "single_word": false,
      "lstrip": false,
      "rstrip": false,
      "normalized": false,
      "special": true
    },
    {
      "id": 12,
      "content": "<unused8>",
      "single_word": false,
      "lstrip": false,
      "rstrip": false,
      "normalized": false,
      "special": true
    },
    {
      "id": 13,
      "content": "<unused9>",
      "single_word": false,
      "lstrip": false,
      "rstrip": false,
      "normalized": false,
      "special": true
    },
    {
      "id": 14,
      "content": "<unused10>",
      "single_word": false,
      "lstrip": false,
      "rstrip": false,
      "normalized": false,
      "special": true
    },
    {
      "id": 15,
      "content": "<unused11>",
      "single_word": false,
      "lstrip": false,
      "rstrip": false,
      "normalized": false,
      "special": true
    },
    {
      "id": 16,
      "content": "<unused12>",
      "single_word": false,
      "lstrip": false,
      "rstrip": false,
      "normalized": false,
      "special": true
    },
    {
      "id": 17,
      "content": "<unused13>",
      "single_word": false,
      "lstrip": false,
      "rstrip": false,
      "normalized": false,
      "special": true
    },
    {
      "id": 18,
      "content": "<unused14>",
      "single_word": false,
      "lstrip": false,
      "rstrip": false,
      "normalized": false,
      "special": true
    },
    {
      "id": 19,
      "content": "<unused15>",
      "single_word": false,
      "lstrip": false,
      "rstrip": false,
      "normalized": false,
      "special": true
    },
    {
      "id": 20,
      "content": "<unused16>",
      "single_word": false,
      "lstrip": false,
      "rstrip": false,
      "normalized": false,
      "special": true
    },
    {
      "id": 21,
      "content": "<unused17>",
      "single_word": false,
      "lstrip": false,
      "rstrip": false,
      "normalized": false,
      "special": true
    },
    {
      "id": 22,
      "content": "<unused18>",
      "single_word": false,
      "lstrip": false,
      "rstrip": false,
      "normalized": false,
      "special": true
    },
    {
      "id": 23,
      "content": "<unused19>",
      "single_word": false,
      "lstrip": false,
      "rstrip": false,
      "normalized": false,
      "special": true
    },
    {
      "id": 24,
      "content": "<unused20>",
      "single_word": false,
      "lstrip": false,
      "rstrip": false,
      "normalized": false,
      "special": true
    },
    {
      "id": 25,
      "content": "<unused21>",
      "single_word": false,
      "lstrip": false,
      "rstrip": false,
      "normalized": false,
      "special": true
    },
    {
      "id": 26,
      "content": "<unused22>",
      "single_word": false,
      "lstrip": false,
      "rstrip": false,
      "normalized": false,
      "special": true
    },
    {
      "id": 27,
      "content": "<unused23>",
      "single_word": false,
      "lstrip": false,
      "rstrip": false,
      "normalized": false,
      "special": true
    },
    {
      "id": 28,
      "content": "<unused24>",
      "single_word": false,
      "lstrip": false,
      "rstrip": false,
      "normalized": false,
      "special": true
    },
    {
      "id": 29,
      "content": "<unused25>",
      "single_word": false,
      "lstrip": false,
      "rstrip": false,
      "normalized": false,
      "special": true
    },
    {
      "id": 30,
      "content": "<unused26>",
      "single_word": false,
      "lstrip": false,
      "rstrip": false,
      "normalized": false,
      "special": true
    },
    {
      "id": 31,
      "content": "<unused27>",
      "single_word": false,
      "lstrip": false,
      "rstrip": false,
      "normalized": false,
      "special": true
    },
    {
      "id": 32,
      "content": "<unused28>",
      "single_word": false,
      "lstrip": false,
      "rstrip": false,
      "normalized": false,
      "special": true
    },
    {
      "id": 33,
      "content": "<unused29>",
      "single_word": false,
      "lstrip": false,
      "rstrip": false,
      "normalized": false,
      "special": true
    },
    {
      "id": 34,
      "content": "<unused30>",
      "single_word": false,
      "lstrip": false,
      "rstrip": false,
      "normalized": false,
      "special": true
    },
    {
      "id": 35,
      "content": "<unused31>",
      "single_word": false,
      "lstrip": false,
      "rstrip": false,
      "normalized": false,
      "special": true
    },
    {
      "id": 36,
      "content": "<unused32>",
      "single_word": false,
      "lstrip": false,
      "rstrip": false,
      "normalized": false,
      "special": true
    },
    {
      "id": 37,
      "content": "<unused33>",
      "single_word": false,
      "lstrip": false,
      "rstrip": false,
      "normalized": false,
      "special": true
    },
    {
      "id": 38,
      "content": "<unused34>",
      "single_word": false,
      "lstrip": false,
      "rstrip": false,
      "normalized": false,
      "special": true
    },
    {
      "id": 39,
      "content": "<unused35>",
      "single_word": false,
      "lstrip": false,
      "rstrip": false,
      "normalized": false,
      "special": true
    },
    {
      "id": 40,
      "content": "<unused36>",
      "single_word": false,
      "lstrip": false,
      "rstrip": false,
      "normalized": false,
      "special": true
    },
    {
      "id": 41,
      "content": "<unused37>",
      "single_word": false,
      "lstrip": false,
      "rstrip": false,
      "normalized": false,
      "special": true
    },
    {
      "id": 42,
      "content": "<unused38>",
      "single_word": false,
      "lstrip": false,
      "rstrip": false,
      "normalized": false,
      "special": true
    },
    {
      "id": 43,
      "content": "<unused39>",
      "single_word": false,
      "lstrip": false,
      "rstrip": false,
      "normalized": false,
      "special": true
    },
    {
      "id": 44,
      "content": "<unused40>",
      "single_word": false,
      "lstrip": false,
      "rstrip": false,
      "normalized": false,
      "special": true
    },
    {
      "id": 45,
      "content": "<unused41>",
      "single_word": false,
      "lstrip": false,
      "rstrip": false,
      "normalized": false,
      "special": true
    },
    {
      "id": 46,
      "content": "<unused42>",
      "single_word": false,
      "lstrip": false,
      "rstrip": false,
      "normalized": false,
      "special": true
    },
    {
      "id": 47,
      "content": "<unused43>",
      "single_word": false,
      "lstrip": false,
      "rstrip": false,
      "normalized": false,
      "special": true
    },
    {
      "id": 48,
      "content": "<unused44>",
      "single_word": false,
      "lstrip": false,
      "rstrip": false,
      "normalized": false,
      "special": true
    },
    {
      "id": 49,
      "content": "<unused45>",
      "single_word": false,
      "lstrip": false,
      "rstrip": false,
      "normalized": false,
      "special": true
    },
    {
      "id": 50,
      "content": "<unused46>",
      "single_word": false,
      "lstrip": false,
      "rstrip": false,
      "normalized": false,
      "special": true
    },
    {
      "id": 51,
      "content": "<unused47>",
      "single_word": false,
      "lstrip": false,
      "rstrip": false,
      "normalized": false,
      "special": true
    },
    {
      "id": 52,
      "content": "<unused48>",
      "single_word": false,
      "lstrip": false,
      "rstrip": false,
      "normalized": false,
      "special": true
    },
    {
      "id": 53,
      "content": "<unused49>",
      "single_word": false,
      "lstrip": false,
      "rstrip": false,
      "normalized": false,
      "special": true
    }
  ],
  "normalizer": {
    "type": "Sequence",
    "normalizers": [
      {
        "type": "Replace",
        "pattern": {
          "String": "``"
        },
        "content": "\""
      },
      {
        "type": "Replace",
        "pattern": {
          "String": "''"
        },
        "content": "\""
      },
      {
        "type": "NFKD"
      },
      {
        "type": "StripAccents"
      },
      {
        "type": "Replace",
        "pattern": {
          "Regex": " {2,}"
        },
        "content": " "
      }
    ]
  },
  "pre_tokenizer": {
    "type": "Metaspace",
    "replacement": "▁",
    "add_prefix_space": false,
    "prepend_scheme": "always"
  },
  "post_processor": {
    "type": "TemplateProcessing",
    "single": [
      {
        "SpecialToken": {
          "id": "<bos>",
          "type_id": 0
        }
      },
      {
        "Sequence": {
          "id": "A",
          "type_id": 0
        }
      },
      {
        "SpecialToken": {
          "id": "<eos>",
          "type_id": 0
        }
      }
    ],
    "pair": [
      {
        "SpecialToken": {
          "id": "<bos>",
          "type_id": 0
        }
      },
      {
        "Sequence": {
          "id": "A",
          "type_id": 0
        }
      },
      {
        "SpecialToken": {
          "id": "<sep>",
          "type_id": 0
        }
      },
      {
        "Sequence": {
          "id": "B",
          "type_id": 1
        }
      },
      {
        "SpecialToken": {
          "id": "<eos>",
          "type_id": 1
        }
      }
    ],
    "special_tokens": {
      "<bos>": {
        "id": "<bos>",
        "ids": [
          1
        ],
        "tokens": [
          "<bos>"
        ]
      },
      "<eos>": {
        "id": "<eos>",
        "ids": [
          2
        ],
        "tokens": [
          "<eos>"
        ]
      },
      "<sep>": {
        "id": "<sep>",
        "ids": [
          3
        ],
        "tokens": [
          "<sep>"
        ]
      }
    }
  },
  "decoder": {
    "type": "Metaspace",
    "replacement": "▁",
    "add_prefix_space": false,
    "prepend_scheme": "always"
  },
  "model": {
    "type": "Unigram",
    "unk_id": 0,
    "vocab": [
      [
        "<unk>",
        0.0
      ],
      [
        "<bos>",
        0.0
      ],
      [
        "<eos>",
        0.0
      ],
      [
        "<sep>",
        0.0
      ],
      [
        "<unused0>",
        0.0
      ],
      [
        "<unused1>",
        0.0
      ],
      [
        "<unused2>",
        0.0
      ],
      [
        "<unused3>",
        0.0
      ],
      [
        "<unused4>",
        0.0
      ],
      [
        "<unused5>",
        0.0
      ],
      [
        "<unused6>",
        0.0
      ],
      [
        "<unused7>",
        0.0
      ],
      [
        "<unused8>",
        0.0
      ],
      [
        "<unused9>",
        0.0
      ],
      [
        "<unused10>",
        0.0
      ],
      [
        "<unused11>",
        0.0
      ],
      [
        "<unused12>",
        0.0
      ],
      [
        "<unused13>",
        0.0
      ],
      [
        "<unused14>",
        0.0
      ],
      [
        "<unused15>",
        0.0
      ],
      [
        "<unused16>",
        0.0
      ],
      [
        "<unused17>",
        0.0
      ],
      [
        "<unused18>",
        0.0
      ],
      [
        "<unused19>",
        0.0
      ],
      [
        "<unused20>",
        0.0
      ],
      [
        "<unused21>",
        0.0
      ],
      [
        "<unused22>",
        0.0
      ],
      [
        "<unused23>",
        0.0
      ],
      [
        "<unused24>",
        0.0
      ],
      [
        "<unused25>",
        0.0
      ],
      [
        "<unused26>",
        0.0
      ],
      [
        "<unused27>",
        0.0
      ],
      [
        "<unused28>",
        0.0
      ],
      [
        "<unused29>",
        0.0
      ],
      [
        "<unused30>",
        0.0
      ],
      [
        "<unused31>",
        0.0
      ],
      [
        "<unused32>",
        0.0
      ],
      [
        "<unused33>",
        0.0
      ],
      [
        "<unused34>",
        0.0
      ],
      [
        "<unused35>",
        0.0
      ],
      [
        "<unused36>",
        0.0
      ],
      [
        "<unused37>",
        0.0
      ],
      [
        "<unused38>",
        0.0
      ],
      [
        "<unused39>",
        0.0
      ],
      [
        "<unused40>",
        0.0
      ],
      [
        "<unused41>",
        0.0
      ],
      [
        "<unused42>",
        0.0
      ],
      [
        "<unused43>",
        0.0
      ],
      [
        "<unused44>",
        0.0
      ],
      [
        "<unused45>",
        0.0
      ],
      [
        "<unused46>",
        0.0
      ],
      [
        "<unused47>",
        0.0
      ],
      [
        "<unused48>",
        0.0
      ],
      [
        "<unused49>",
        0.0
      ],
      [
        ",",
        -3.7360523295719954
      ],
      [
        "的",
        -3.9956015495476382
      ],
      [
        "。",
        -4.210653491254609
      ],
      [
        "▁",
        -4.229374743036448
      ],
      [
        "、",
        -4.60084244310783
      ],
      [
        "和",
        -5.204300612259701
      ],
      [
        "在",
        -5.246368228421517
      ],
      [
        "。\n",
        -5.524607053893629
      ],
      [
        "(",
        -5.682138638272619
      ],
      [
        "\n*",
        -5.684517159036819
      ],
      [
        "“",
        -5.700735173487466
      ],
      [
        "\n",
        -5.7692143022962465
      ],
      [
        "为",
        -5.85752153048576
      ],
      [
        "是",
        -5.873801987227315
      ],
      [
        "”",
        -5.930194588355313
      ],
      [
        "与",
        -5.933287221891941
      ],
      [
        ":",
        -5.9761880694415535
      ],
      [
        "中",
        -6.098070930804136
      ],
      [
        "了",
        -6.116758010511921
      ],
      [
        ")",
        -6.157695000636593
      ],
      [
        "有",
        -6.259300446936688
      ],
      [
        "大",
        -6.337227093708055
      ],
      [
        "上",
        -6.379392651972269
      ],
      [
        "人",
        -6.428591799344863
      ],
      [
        "将",
        -6.464003520611637
      ],
      [
        "被",
        -6.4648629606551715
      ],
      [
        "▁the",
        -6.478914226126781
      ],
      [
        "对",
        -6.4834327553192495
      ],
      [
        "等",
        -6.514679410789217
      ],
      [
        ";",
        -6.541209620302791
      ],
      [
        "《",
        -6.578217707307616
      ],
      [
        "及",
        -6.614507560689715
      ],
      [
        "以",
        -6.617530292900192
      ],
      [
        "到",
        -6.621170966843396
      ],
      [
        "》",
        -6.646383873078102
      ],
      [
        "后",
        -6.717456212149003
      ],
      [
        "一",
        -6.719267095627085
      ],
      [
        "不",
        -6.76095712475812
      ],
      [
        "-",
        -6.798827022154782
      ],
      [
        "于",
        -6.830465867844202
      ],
      [
        "中国",
        -6.8598814710605875
      ],
      [
        "新",
        -6.86111468695945
      ],
      [
        "公司",
        -6.884236351276167
      ],
      [
        "从",
        -6.890639826875821
      ],
      [
        "也",
        -6.903306980134493
      ],
      [
        "会",
        -6.907971517046336
      ],
      [
        "时",
        -6.932428933317761
      ],
      [
        "之",
        -7.0152170884758345
      ],
      [
        "1",
        -7.016239011110107
      ],
      [
        "由",
        -7.022020344236857
      ],
      [
        "小",
        -7.024126160085247
      ],
      [
        ",但",
        -7.04381050436969
      ],
      [
        "▁a",
        -7.052543170870631
      ],
      [
        "2",
        -7.056010926911419
      ],
      [
        ".",
        -7.076303769807906
      ],
      [
        "地",
        -7.078160156244948
      ],
      [
        "多",
        -7.081259728740703
      ],
      [
        ")\n*",
        -7.083649873209154
      ],
      [
        "至",
        -7.084897306712376
      ],
      [
        "前",
        -7.099431978187146
      ],
      [
        "或",
        -7.112299156643768
      ],
      [
        "...",
        -7.121741754571788
      ],
      [
        "来",
        -7.1323358690530085
      ],
      [
        "而",
        -7.150773508030452
      ],
      [
        "高",
        -7.154378514730736
      ],
      [
        "。\n*",
        -7.158069220450292
      ],
      [
        "市",
        -7.160582914651668
      ],
      [
        "3",
        -7.165827474956199
      ],
      [
        "他",
        -7.177497447328017
      ],
      [
        "子",
        -7.196849038995472
      ],
      [
        "都",
        -7.199143946376331
      ],
      [
        "▁of",
        -7.20030941803933
      ],
      [
        "下",
        -7.208841016619267
      ],
      [
        "·",
        -7.212859265884081
      ],
      [
        "进行",
        -7.216044391810076
      ],
      [
        "▁to",
        -7.2213907853285555
      ],
      [
        "三",
        -7.229951445309593
      ],
      [
        "内",
        -7.231928670297
      ],
      [
        "就",
        -7.248481072402106
      ],
      [
        "「",
        -7.249136579212841
      ],
      [
        "其",
        -7.250721770231925
      ],
      [
        ",并",
        -7.265099868390843
      ],
      [
        "里",
        -7.276570193221151
      ],
      [
        "一个",
        -7.277873402917045
      ],
      [
        "山",
        -7.281102984425724
      ],
      [
        "所",
        -7.2968372401465
      ],
      [
        "▁in",
        -7.306246552602229
      ],
      [
        "西",
        -7.310995060371463
      ],
      [
        "长",
        -7.311512285144687
      ],
      [
        "5",
        -7.316506599968909
      ],
      [
        "4",
        -7.317472512335144
      ],
      [
        "s",
        -7.317506780855915
      ],
      [
        "王",
        -7.319979788277854
      ],
      [
        "家",
        -7.322476135040954
      ],
      [
        "已",
        -7.332952027511992
      ],
      [
        "向",
        -7.339157656385039
      ],
      [
        ",在",
        -7.344122544701225
      ],
      [
        "后,",
        -7.346578506298959
      ],
      [
        "德",
        -7.346647871065603
      ],
      [
        "要",
        -7.361048019523715
      ],
      [
        "区",
        -7.368789122046911
      ],
      [
        "201",
        -7.369183041244709
      ],
      [
        "用",
        -7.379856702883629
      ],
      [
        "天",
        -7.393314974352299
      ],
      [
        "并",
        -7.406282057524326
      ],
      [
        "水",
        -7.411614686954035
      ],
      [
        "马",
        -7.414178133795652
      ],
      [
        "?",
        -7.4149485255008205
      ],
      [
        "可",
        -7.425124294094092
      ],
      [
        "企业",
        -7.4319912015653316
      ],
      [
        "市场",
        -7.439374283349437
      ],
      [
        "▁and",
        -7.442187871439252
      ],
      [
        "文",
        -7.442713404852338
      ],
      [
        "国家",
        -7.445951339313408
      ],
      [
        "美国",
        -7.446123309709542
      ],
      [
        "金",
        -7.447668651789495
      ],
      [
        "因",
        -7.463441294688168
      ],
      [
        "」",
        -7.470935988583559
      ],
      [
        ",而",
        -7.473977699012124
      ],
      [
        "国",
        -7.488132494629387
      ],
      [
        "性",
        -7.499950392707177
      ],
      [
        "!",
        -7.500585304616189
      ],
      [
        "出",
        -7.511596542409245
      ],
      [
        "6",
        -7.51449908626374
      ],
      [
        "▁*",
        -7.533829901765486
      ],
      [
        "者",
        -7.5430611658665985
      ],
      [
        "路",
        -7.543078258641193
      ],
      [
        "比",
        -7.551900458328586
      ],
      [
        "”。",
        -7.562662815871345
      ],
      [
        "南",
        -7.567191987198534
      ],
      [
        "名",
        -7.572585842565443
      ],
      [
        "东",
        -7.578652457081462
      ],
      [
        "成",
        -7.587576964529358
      ],
      [
        "县",
        -7.600133331769797
      ],
      [
        "7",
        -7.618533218127915
      ],
      [
        "年",
        -7.620593221589139
      ],
      [
        "能",
        -7.628128319683402
      ],
      [
        "特",
        -7.629551068630038
      ],
      [
        "8",
        -7.634947654582854
      ],
      [
        "过",
        -7.635580367763275
      ],
      [
        "开始",
        -7.636974886861658
      ],
      [
        "使用",
        -7.63727782501876
      ],
      [
        "本",
        -7.638212873729911
      ],
      [
        "海",
        -7.639765211822281
      ],
      [
        "达",
        -7.640374941999072
      ],
      [
        "ing",
        -7.641139458012145
      ],
      [
        "正",
        -7.641182090331194
      ],
      [
        "成为",
        -7.6434105595026125
      ],
      [
        "车",
        -7.64684382943693
      ],
      [
        "没有",
        -7.65473745046619
      ],
      [
        "城",
        -7.664897743168995
      ],
      [
        "斯",
        -7.667302346766757
      ],
      [
        "还",
        -7.669765415550522
      ],
      [
        "无",
        -7.672270864198557
      ],
      [
        "生",
        -7.673147470497224
      ],
      [
        "),",
        -7.674816012960729
      ],
      [
        "军",
        -7.676215502028697
      ],
      [
        "已经",
        -7.677421882422003
      ],
      [
        "通过",
        -7.685821761278994
      ],
      [
        "道",
        -7.687928668173841
      ],
      [
        "ed",
        -7.688506980964382
      ],
      [
        "安",
        -7.700538764755107
      ],
      [
        ")\n",
        -7.701602891586765
      ],
      [
        "美",
        -7.70430056214623
      ],
      [
        "可以",
        -7.706016920292067
      ],
      [
        "日",
        -7.7063938421922895
      ],
      [
        "3年",
        -7.710437877609012
      ],
      [
        "张",
        -7.711595743717771
      ],
      [
        "部",
        -7.714736216371325
      ],
      [
        "林",
        -7.715476432637498
      ],
      [
        "时,",
        -7.716652334738651
      ],
      [
        "科",
        -7.722844868048011
      ],
      [
        "拉",
        -7.726715113931832
      ],
      [
        "法",
        -7.73006868600968
      ],
      [
        "该",
        -7.732729787330189
      ],
      [
        "去",
        -7.733465056751289
      ],
      [
        "二",
        -7.745366822389512
      ],
      [
        "分",
        -7.746633257722211
      ],
      [
        "工作",
        -7.75333604778972
      ],
      [
        "州",
        -7.753375258884143
      ],
      [
        "利",
        -7.775395258704075
      ],
      [
        "4年",
        -7.778886853392006
      ],
      [
        "李",
        -7.78437176359855
      ],
      [
        "卡",
        -7.787004939365586
      ],
      [
        "大学",
        -7.788334417747921
      ],
      [
        "自",
        -7.788644667272207
      ],
      [
        "则",
        -7.800283160908375
      ],
      [
        "9",
        -7.803849365065695
      ],
      [
        "/",
        -7.804564062373759
      ],
      [
        "5年",
        -7.809070772866376
      ],
      [
        "起",
        -7.809429083427112
      ],
      [
        "号",
        -7.809935361588307
      ],
      [
        "头",
        -7.81211313745162
      ],
      [
        "以及",
        -7.813290539395515
      ],
      [
        "明",
        -7.815000801656749
      ],
      [
        "龙",
        -7.815793872875718
      ],
      [
        "▁(",
        -7.818472850907204
      ],
      [
        "线",
        -7.819173211124168
      ],
      [
        "2年",
        -7.822980143872956
      ],
      [
        "”,",
        -7.823511552068554
      ],
      [
        "站",
        -7.82384602186503
      ],
      [
        "10",
        -7.825390359434634
      ],
      [
        "着",
        -7.826456260885292
      ],
      [
        "村",
        -7.826692196692145
      ],
      [
        "华",
        -7.830475992721453
      ],
      [
        "得",
        -7.830626130905211
      ],
      [
        "原",
        -7.837540505409034
      ],
      [
        "克",
        -7.838194194824494
      ],
      [
        "点",
        -7.838237828170751
      ],
      [
        "最",
        -7.845223474785039
      ],
      [
        "四",
        -7.845283060869772
      ],
      [
        "投资",
        -7.846101659422018
      ],
      [
        "又",
        -7.847869461824908
      ],
      [
        "我",
        -7.849155337402816
      ],
      [
        "发展",
        -7.850657125495182
      ],
      [
        "政府",
        -7.850883292794261
      ],
      [
        "给",
        -7.851352500403154
      ],
      [
        "作为",
        -7.853826070312223
      ],
      [
        "平",
        -7.85554447375204
      ],
      [
        "。在",
        -7.859345259943511
      ],
      [
        "获得",
        -7.859631979083948
      ],
      [
        "国际",
        -7.861296895270899
      ],
      [
        "把",
        -7.865263817958914
      ],
      [
        "中,",
        -7.8758558616283185
      ],
      [
        "花",
        -7.87650914248243
      ],
      [
        "阿",
        -7.877708367050831
      ],
      [
        "香港",
        -7.880587599541865
      ],
      [
        "元",
        -7.881922095258977
      ],
      [
        "更",
        -7.882083095945411
      ],
      [
        "服务",
        -7.88280593516547
      ],
      [
        "8年",
        -7.883978920521173
      ],
      [
        "北京",
        -7.885628651474089
      ],
      [
        "加",
        -7.891330628135123
      ],
      [
        "好",
        -7.895320236507304
      ],
      [
        "产品",
        -7.899480162854937
      ],
      [
        "罗",
        -7.900188927014522
      ],
      [
        "▁s",
        -7.902287737166658
      ],
      [
        "你",
        -7.911347421819864
      ],
      [
        "日本",
        -7.914118113219727
      ],
      [
        "开",
        -7.917860032791555
      ],
      [
        "9年",
        -7.91856482108135
      ],
      [
        "说",
        -7.924849689807571
      ],
      [
        "田",
        -7.925158915297688
      ],
      [
        "两",
        -7.926053683435688
      ],
      [
        "光",
        -7.926992250123213
      ],
      [
        "她",
        -7.931499567723442
      ],
      [
        "台",
        -7.93177324829662
      ],
      [
        "y",
        -7.937170239945644
      ],
      [
        "化",
        -7.937264710010835
      ],
      [
        "tion",
        -7.937364519500525
      ],
      [
        "1年",
        -7.938679168521292
      ],
      [
        "五",
        -7.940433099008548
      ],
      [
        "表示,",
        -7.9417794194838205
      ],
      [
        "行",
        -7.9430469695684
      ],
      [
        "地区",
        -7.947741745863104
      ],
      [
        "河",
        -7.949262514378178
      ],
      [
        "自己",
        -7.959830584185237
      ],
      [
        "心",
        -7.964055984695547
      ],
      [
        "门",
        -7.965229818969911
      ],
      [
        "外",
        -7.967089585775607
      ],
      [
        "做",
        -7.968709304685563
      ],
      [
        "发",
        -7.9703969163601265
      ],
      [
        "方",
        -7.97365080957794
      ],
      [
        "石",
        -7.979393532269565
      ],
      [
        "▁-",
        -7.985974402291403
      ],
      [
        "曾",
        -7.987932443971674
      ],
      [
        "经济",
        -7.988431532972372
      ],
      [
        "米",
        -7.989084368311811
      ],
      [
        "0年",
        -7.990230384536311
      ],
      [
        "网",
        -7.992127713593186
      ],
      [
        "7年",
        -7.993083261003848
      ],
      [
        "时间",
        -7.994277903834616
      ],
      [
        ",以",
        -7.998584659062759
      ],
      [
        "”的",
        -7.999057286160722
      ],
      [
        "重",
        -8.001093480732987
      ],
      [
        "北",
        -8.002343743373455
      ],
      [
        "集团",
        -8.006300076442328
      ],
      [
        "6年",
        -8.007480659755258
      ],
      [
        "让",
        -8.017497925802934
      ],
      [
        "局",
        -8.019376336645571
      ],
      [
        "称",
        -8.020315441954263
      ],
      [
        ",是",
        -8.020796412251144
      ],
      [
        "他们",
        -8.021014343221388
      ],
      [
        ",他",
        -8.028774574962585
      ],
      [
        "全",
        -8.031959218791442
      ],
      [
        "学",
        -8.0363666529549
      ],
      [
        "镇",
        -8.037864688309961
      ],
      [
        "项目",
        -8.045599106804945
      ],
      [
        "用户",
        -8.049040335643554
      ],
      [
        "技术",
        -8.0509849302514
      ],
      [
        "这个",
        -8.054450976062746
      ],
      [
        "城市",
        -8.058582493029245
      ],
      [
        "亚",
        -8.061683791145683
      ],
      [
        "式",
        -8.065745131021421
      ],
      [
        "研究",
        -8.069695722958942
      ],
      [
        "提供",
        -8.070620513368578
      ],
      [
        "手",
        -8.0759003078669
      ],
      [
        "银行",
        -8.076257580537527
      ],
      [
        "再",
        -8.076665448987255
      ],
      [
        "尼",
        -8.07761302545901
      ],
      [
        "万",
        -8.079146772030251
      ],
      [
        "的“",
        -8.079563320185988
      ],
      [
        "队",
        -8.080075037086797
      ],
      [
        "——",
        -8.08371223141348
      ],
      [
        "世界",
        -8.085704990943595
      ],
      [
        "打",
        -8.086155450030054
      ],
      [
        "进入",
        -8.086775309325485
      ],
      [
        "这",
        -8.089001404770247
      ],
      [
        "白",
        -8.090014484284772
      ],
      [
        "系统",
        -8.092488825164757
      ],
      [
        "神",
        -8.094783085137562
      ],
      [
        "发现",
        -8.095664718320085
      ],
      [
        "问题",
        -8.095751205973421
      ],
      [
        "女",
        -8.09662814514969
      ],
      [
        "部分",
        -8.098449155835661
      ],
      [
        "同",
        -8.09946977753942
      ],
      [
        "机",
        -8.0995187870742
      ],
      [
        "型",
        -8.107792653701825
      ],
      [
        "黄",
        -8.111489053802623
      ],
      [
        "位于",
        -8.111503932511742
      ],
      [
        "经",
        -8.12223270226196
      ],
      [
        "可能",
        -8.125439893254926
      ],
      [
        "管理",
        -8.125734015478825
      ],
      [
        "游戏",
        -8.133840633079402
      ],
      [
        "我们",
        -8.134450660392577
      ],
      [
        "当",
        -8.136913661153335
      ],
      [
        "一些",
        -8.141645673079404
      ],
      [
        "只",
        -8.14206583255853
      ],
      [
        "主",
        -8.142319552414948
      ],
      [
        "清",
        -8.142960692190561
      ],
      [
        "A",
        -8.145560757723917
      ],
      [
        "公",
        -8.146462199392095
      ],
      [
        "全国",
        -8.147152229412677
      ],
      [
        "却",
        -8.1527223014344
      ],
      [
        "岛",
        -8.153688188885965
      ],
      [
        "江",
        -8.155916164278139
      ],
      [
        "上海",
        -8.15842102599235
      ],
      [
        "出现",
        -8.163169763672741
      ],
      [
        "en",
        -8.168819061285179
      ],
      [
        "200",
        -8.169668999172872
      ],
      [
        ",其中",
        -8.171091460713148
      ],
      [
        "力",
        -8.174820070744852
      ],
      [
        "▁be",
        -8.176843396440836
      ],
      [
        "回",
        -8.179898981769817
      ],
      [
        "周",
        -8.18012025895247
      ],
      [
        "数",
        -8.181272036407956
      ],
      [
        "任",
        -8.183949988470431
      ],
      [
        "需要",
        -8.18409190982574
      ],
      [
        "位",
        -8.184145347553061
      ],
      [
        "某",
        -8.186465024680164
      ],
      [
        "约",
        -8.186500477615587
      ],
      [
        "行业",
        -8.18666124141179
      ],
      [
        "通",
        -8.187111240177417
      ],
      [
        "共",
        -8.187767668732496
      ],
      [
        "爱",
        -8.190607048298094
      ],
      [
        "第一",
        -8.192367671622833
      ],
      [
        "陈",
        -8.194564002514587
      ],
      [
        "作",
        -8.197780787425161
      ],
      [
        "入",
        -8.198110593902818
      ],
      [
        "组织",
        -8.200261870188479
      ],
      [
        "手机",
        -8.20172407101332
      ],
      [
        "风",
        -8.20239377680639
      ],
      [
        "业务",
        -8.203261558009787
      ],
      [
        "红",
        -8.204577370162262
      ],
      [
        "巴",
        -8.206066848721017
      ],
      [
        "超",
        -8.207029569664238
      ],
      [
        "网络",
        -8.211359824747504
      ],
      [
        "古",
        -8.212336602526388
      ],
      [
        "口",
        -8.212423262644306
      ],
      [
        "中心",
        -8.216634959594828
      ],
      [
        "正式",
        -8.217026321101216
      ],
      [
        "计划",
        -8.218072540708576
      ],
      [
        "▁for",
        -8.218341854676725
      ],
      [
        "格",
        -8.219315155733014
      ],
      [
        "学校",
        -8.2229911345202
      ],
      [
        "场",
        -8.225136524357639
      ],
      [
        "S",
        -8.226470697934914
      ],
      [
        "省",
        -8.228522394431014
      ],
      [
        "塔",
        -8.229508007538682
      ],
      [
        "建",
        -8.230560954038491
      ],
      [
        "体",
        -8.231909010562095
      ],
      [
        "这些",
        -8.233199040561603
      ],
      [
        "包括",
        -8.233965120534256
      ],
      [
        "纳",
        -8.24211700105508
      ],
      [
        "看",
        -8.243604861800145
      ],
      [
        "'s",
        -8.245355393888715
      ],
      [
        "互联网",
        -8.246579597672298
      ],
      [
        "价格",
        -8.249114565101943
      ],
      [
        "云",
        -8.254260966182647
      ],
      [
        "图",
        -8.25816544697927
      ],
      [
        "面",
        -8.25860505787235
      ],
      [
        "受",
        -8.265991211588368
      ],
      [
        "B",
        -8.266241089721477
      ],
      [
        "进",
        -8.266312427965323
      ],
      [
        "刘",
        -8.267935771997173
      ],
      [
        "信",
        -8.268522554621777
      ],
      [
        "基",
        -8.271117594242519
      ],
      [
        "建设",
        -8.271356606344963
      ],
      [
        "目前",
        -8.271934713336787
      ],
      [
        "就是",
        -8.275956813267564
      ],
      [
        "老",
        -8.279093206328783
      ],
      [
        "英国",
        -8.280292193280664
      ],
      [
        "发生",
        -8.280631753127304
      ],
      [
        "活动",
        -8.282043487200479
      ],
      [
        "▁《",
        -8.282120171222422
      ],
      [
        "各",
        -8.283227802629236
      ],
      [
        "类",
        -8.284887366817063
      ],
      [
        "尔",
        -8.287463718336209
      ],
      [
        "电影",
        -8.288441864737036
      ],
      [
        ")、",
        -8.296472527658803
      ],
      [
        ",其",
        -8.297125699678755
      ],
      [
        "教育",
        -8.298399261913147
      ],
      [
        "平台",
        -8.299598002664482
      ],
      [
        "六",
        -8.300716754427835
      ],
      [
        "that",
        -8.30358525878166
      ],
      [
        "处",
        -8.308451094600775
      ],
      [
        "级",
        -8.308909386549084
      ],
      [
        "非",
        -8.311843060732743
      ],
      [
        "12",
        -8.31249365023914
      ],
      [
        "文化",
        -8.312980443705776
      ],
      [
        "主要",
        -8.313849610512719
      ],
      [
        "官",
        -8.313914904070053
      ],
      [
        "未",
        -8.314814249211903
      ],
      [
        "设计",
        -8.316353390480488
      ],
      [
        "发布",
        -8.317622107126748
      ],
      [
        "称,",
        -8.31835277065005
      ],
      [
        "们",
        -8.319023341048908
      ],
      [
        "伊",
        -8.322504274338343
      ],
      [
        "表示",
        -8.323065728109496
      ],
      [
        "次",
        -8.324495173647207
      ],
      [
        "间",
        -8.327652656837401
      ],
      [
        "制",
        -8.329623814824048
      ],
      [
        "今年",
        -8.330668455414678
      ],
      [
        "学生",
        -8.332219789846938
      ],
      [
        "信息",
        -8.334072452575235
      ],
      [
        "单",
        -8.334713704055469
      ],
      [
        "木",
        -8.335305673663125
      ],
      [
        "#",
        -8.33671255230392
      ],
      [
        "种",
        -8.338195088324001
      ],
      [
        "其他",
        -8.338928513326042
      ],
      [
        "带",
        -8.340375568817974
      ],
      [
        "转",
        -8.340844338018929
      ],
      [
        "。而",
        -8.34452748031366
      ],
      [
        "近",
        -8.344953165879192
      ],
      [
        "期",
        -8.34499322172005
      ],
      [
        "应",
        -8.345875546810843
      ],
      [
        "很",
        -8.346241624226689
      ],
      [
        "连",
        -8.347519061763819
      ],
      [
        "波",
        -8.353002345382553
      ],
      [
        "系",
        -8.354284804314362
      ],
      [
        "集",
        -8.35440561266633
      ],
      [
        "。但",
        -8.35461022380038
      ],
      [
        "社会",
        -8.354806002489578
      ],
      [
        "武",
        -8.355081681076973
      ],
      [
        "机构",
        -8.356017058243586
      ],
      [
        "人员",
        -8.357365831079887
      ],
      [
        "度",
        -8.359045493742133
      ],
      [
        "个",
        -8.359177398255932
      ],
      [
        "此",
        -8.360050257480209
      ],
      [
        "量",
        -8.361365765221596
      ],
      [
        "20",
        -8.362015055384813
      ],
      [
        "立",
        -8.36274821914454
      ],
      [
        "认为",
        -8.368670352790309
      ],
      [
        "太",
        -8.370042578174118
      ],
      [
        "相关",
        -8.373083105745446
      ],
      [
        "总",
        -8.375332845899104
      ],
      [
        "参加",
        -8.376931260811423
      ],
      [
        "。”",
        -8.378234060672566
      ],
      [
        "圣",
        -8.379304754275761
      ],
      [
        "想",
        -8.379354788192993
      ],
      [
        "黑",
        -8.380244612524287
      ],
      [
        "数据",
        -8.381331389082693
      ],
      [
        "担任",
        -8.381350986902639
      ],
      [
        "球",
        -8.383113186780617
      ],
      [
        "率",
        -8.383338033493628
      ],
      [
        "星",
        -8.38400639059104
      ],
      [
        "正在",
        -8.384274729179056
      ],
      [
        "八",
        -8.384812409733913
      ],
      [
        "书",
        -8.385189143335541
      ],
      [
        "维",
        -8.385685322096114
      ],
      [
        "有限公司",
        -8.388288577308655
      ],
      [
        "▁re",
        -8.3904482656323
      ],
      [
        "定",
        -8.391327102928992
      ],
      [
        "代表",
        -8.392100571102581
      ],
      [
        ")。",
        -8.394197390450586
      ],
      [
        "版",
        -8.395721943716211
      ],
      [
        "如",
        -8.396099698657807
      ],
      [
        "要求",
        -8.396596092729412
      ],
      [
        "完成",
        -8.396746148566592
      ],
      [
        "宗",
        -8.397718010151882
      ],
      [
        "强",
        -8.397963942032183
      ],
      [
        "街",
        -8.400762353018514
      ],
      [
        "铁路",
        -8.404320367554984
      ],
      [
        "川",
        -8.405101657000952
      ],
      [
        "雷",
        -8.408903809461577
      ],
      [
        "C",
        -8.412207624804779
      ],
      [
        "师",
        -8.414794370925025
      ],
      [
        "兰",
        -8.418652335406215
      ],
      [
        "房",
        -8.41989447239546
      ],
      [
        "委员会",
        -8.42121501071143
      ],
      [
        "英",
        -8.421687833438463
      ],
      [
        "全球",
        -8.423085339250303
      ],
      [
        "氏",
        -8.424433650943424
      ],
      [
        "还是",
        -8.426331440710035
      ],
      [
        "世",
        -8.426503823697962
      ],
      [
        "品牌",
        -8.428080209115855
      ],
      [
        "中央",
        -8.429535395634764
      ],
      [
        "钱",
        -8.429564592653511
      ],
      [
        "真",
        -8.430730178015859
      ],
      [
        "资金",
        -8.432155711289838
      ],
      [
        "所有",
        -8.43370242680191
      ],
      [
        "工程",
        -8.435323359537948
      ],
      [
        "宝",
        -8.435584753984081
      ],
      [
        "拥有",
        -8.43587815242334
      ],
      [
        "中的",
        -8.43653818021727
      ],
      [
        "台湾",
        -8.43773666870915
      ],
      [
        "属",
        -8.442169225149165
      ],
      [
        "夫",
        -8.443560368796328
      ],
      [
        "布",
        -8.445370201530581
      ],
      [
        "安全",
        -8.445968236831067
      ],
      [
        "才",
        -8.446313254987306
      ],
      [
        "派",
        -8.448454539010388
      ],
      [
        "事",
        -8.448717227454127
      ],
      [
        "乐",
        -8.450021916540305
      ],
      [
        "个人",
        -8.45086733472641
      ],
      [
        ",为",
        -8.451023773243161
      ],
      [
        "据",
        -8.455044721735135
      ],
      [
        "都是",
        -8.455431688183221
      ],
      [
        "相",
        -8.45751751691492
      ],
      [
        "月",
        -8.457675075105577
      ],
      [
        "▁S",
        -8.45881544496721
      ],
      [
        "吉",
        -8.460155201599587
      ],
      [
        "er",
        -8.460626830230963
      ],
      [
        "桥",
        -8.461078610453956
      ],
      [
        "决定",
        -8.461812482323642
      ],
      [
        "港",
        -8.466426467399438
      ],
      [
        "实现",
        -8.467014455270062
      ],
      [
        "生活",
        -8.467342880619054
      ],
      [
        "双",
        -8.47184829019871
      ],
      [
        "走",
        -8.47403838784934
      ],
      [
        "▁is",
        -8.474222811278894
      ],
      [
        "es",
        -8.476167343064398
      ],
      [
        "商",
        -8.481409160035387
      ],
      [
        "科技",
        -8.48149731726832
      ],
      [
        "因为",
        -8.48208492593699
      ],
      [
        "媒体",
        -8.482585850165385
      ],
      [
        ",由",
        -8.484407051293728
      ],
      [
        "医院",
        -8.484957818707981
      ],
      [
        "郡",
        -8.485057927367913
      ],
      [
        "首",
        -8.485954581930223
      ],
      [
        "于201",
        -8.486136250598008
      ],
      [
        "参与",
        -8.486136850567306
      ],
      [
        "赛",
        -8.486203705346295
      ],
      [
        "第二",
        -8.486239633721105
      ],
      [
        "沙",
        -8.48632372949168
      ],
      [
        "座",
        -8.488516186665573
      ],
      [
        "政策",
        -8.489492884815643
      ],
      [
        "继续",
        -8.491677179029606
      ],
      [
        "对于",
        -8.494273964686537
      ],
      [
        "宣布",
        -8.494702724675864
      ],
      [
        "支持",
        -8.495038214428353
      ],
      [
        "成功",
        -8.495857875712133
      ],
      [
        "语",
        -8.497285891951948
      ],
      [
        "奥",
        -8.497605771992859
      ],
      [
        "le",
        -8.498943663816345
      ],
      [
        "代",
        -8.502174437290362
      ],
      [
        "战",
        -8.50411811062016
      ],
      [
        "福",
        -8.505836013396484
      ],
      [
        "奇",
        -8.506117477277604
      ],
      [
        "组",
        -8.506418176593867
      ],
      [
        "兵",
        -8.50767335654799
      ],
      [
        "▁\"",
        -8.50999220609456
      ],
      [
        "使",
        -8.513392992707292
      ],
      [
        "销售",
        -8.515092523440815
      ],
      [
        "▁was",
        -8.515275019952863
      ],
      [
        "民",
        -8.516777021501328
      ],
      [
        "来自",
        -8.517846414488995
      ],
      [
        "G",
        -8.517969834199866
      ],
      [
        "那",
        -8.51826800389086
      ],
      [
        "史",
        -8.51860248145725
      ],
      [
        "汽车",
        -8.519526114054104
      ],
      [
        "e",
        -8.519560731536059
      ],
      [
        "先",
        -8.521057671198472
      ],
      [
        "合",
        -8.521637745028643
      ],
      [
        "音乐",
        -8.524963357721216
      ],
      [
        "i",
        -8.526498582558416
      ],
      [
        "费",
        -8.527272099530935
      ],
      [
        "▁on",
        -8.52763055236596
      ],
      [
        "汉",
        -8.530694309089837
      ],
      [
        "ter",
        -8.531397088996721
      ],
      [
        "交易",
        -8.531655031544418
      ],
      [
        "合作",
        -8.532980278500007
      ],
      [
        "。201",
        -8.533673029722836
      ],
      [
        "非常",
        -8.536124588525235
      ],
      [
        "权",
        -8.536504162593593
      ],
      [
        "。他",
        -8.537887915410577
      ],
      [
        "记者",
        -8.539017834302955
      ],
      [
        "法国",
        -8.539434539869381
      ],
      [
        "亦",
        -8.539779983075329
      ],
      [
        "宫",
        -8.540080429771079
      ],
      [
        "国内",
        -8.540282722453547
      ],
      [
        "空",
        -8.542047285130566
      ],
      [
        "飞",
        -8.542631679164177
      ],
      [
        "七",
        -8.543369976895452
      ],
      [
        "见",
        -8.547804674895618
      ],
      [
        "金融",
        -8.55076607831924
      ],
      [
        "诺",
        -8.553626663299582
      ],
      [
        "鱼",
        -8.55547013218642
      ],
      [
        "11",
        -8.556114056354062
      ],
      [
        "森",
        -8.556741462976875
      ],
      [
        "条",
        -8.559238833754826
      ],
      [
        ",因此",
        -8.560533724016395
      ],
      [
        "建筑",
        -8.561189657004327
      ],
      [
        "气",
        -8.561610223002845
      ],
      [
        "吃",
        -8.561729945084426
      ],
      [
        "均",
        -8.563698843757749
      ],
      [
        "联合",
        -8.566301427253832
      ],
      [
        "一名",
        -8.5666960506546
      ],
      [
        "乡",
        -8.56778376599576
      ],
      [
        "火",
        -8.567843257933253
      ],
      [
        "内容",
        -8.56820450632259
      ],
      [
        "K",
        -8.568689504465668
      ],
      [
        "选择",
        -8.569340410154028
      ],
      [
        "楼",
        -8.569832306322594
      ],
      [
        "学院",
        -8.5776830986718
      ],
      [
        "士",
        -8.580339237073451
      ],
      [
        "首次",
        -8.581530571486113
      ],
      [
        "M",
        -8.58232762903794
      ],
      [
        "它",
        -8.583285795588644
      ],
      [
        "团",
        -8.58357196565452
      ],
      [
        ",这",
        -8.58459294159034
      ],
      [
        "胜",
        -8.585923657044283
      ],
      [
        "段",
        -8.586429336885793
      ],
      [
        "\"",
        -8.589990985865173
      ],
      [
        "恩",
        -8.590097386171095
      ],
      [
        "调",
        -8.591147252113661
      ],
      [
        "流",
        -8.592738165373413
      ],
      [
        "阳",
        -8.594018107649276
      ],
      [
        "杨",
        -8.594318931673753
      ],
      [
        "班",
        -8.594577774671183
      ],
      [
        "开发",
        -8.59580971393204
      ],
      [
        "管",
        -8.59748189060303
      ],
      [
        "15",
        -8.598658122255824
      ],
      [
        "电",
        -8.600554868534424
      ],
      [
        "E",
        -8.600673142685823
      ],
      [
        "著",
        -8.601292598350941
      ],
      [
        "不能",
        -8.602439149421528
      ],
      [
        ",将",
        -8.602990505269696
      ],
      [
        "产业",
        -8.6055920738254
      ],
      [
        "业",
        -8.60564273327404
      ],
      [
        "一起",
        -8.606518652015707
      ],
      [
        "博",
        -8.60694578088982
      ],
      [
        "野",
        -8.60757831289621
      ],
      [
        "叶",
        -8.609473457981897
      ],
      [
        "松",
        -8.609869637059091
      ],
      [
        "热",
        -8.612025373530695
      ],
      [
        "青",
        -8.612897863500253
      ],
      [
        "身",
        -8.612961116421163
      ],
      [
        "节",
        -8.615553304007939
      ],
      [
        "环境",
        -8.615939222159597
      ],
      [
        "成立",
        -8.616970909511794
      ],
      [
        "—",
        -8.618153105269649
      ],
      [
        "两个",
        -8.618649471518168
      ],
      [
        "基金",
        -8.620392995136394
      ],
      [
        "\n201",
        -8.621743645210454
      ],
      [
        ",但是",
        -8.622494547016027
      ],
      [
        "九",
        -8.623312652880475
      ],
      [
        "方面",
        -8.626994141327184
      ],
      [
        "俄罗斯",
        -8.630180813421017
      ],
      [
        "义",
        -8.631132969660774
      ],
      [
        "n",
        -8.631246381798984
      ],
      [
        "声",
        -8.632026072182015
      ],
      [
        "广",
        -8.632062207420036
      ],
      [
        "直接",
        -8.633193738258932
      ],
      [
        "自己的",
        -8.63323164602868
      ],
      [
        "湖",
        -8.633380215578848
      ],
      [
        "单位",
        -8.635470092143898
      ],
      [
        "ment",
        -8.636091955528451
      ],
      [
        "店",
        -8.637873051132416
      ],
      [
        "30",
        -8.637902295991324
      ],
      [
        "报",
        -8.63952173791238
      ],
      [
        "哈",
        -8.639623489346638
      ],
      [
        ",包括",
        -8.64100364221081
      ],
      [
        "无法",
        -8.641751337524722
      ],
      [
        "远",
        -8.645145923522012
      ],
      [
        "皮",
        -8.645839752158453
      ],
      [
        "▁饰",
        -8.64720289823244
      ],
      [
        "根据",
        -8.647384605595404
      ],
      [
        "车站",
        -8.650034315694025
      ],
      [
        "▁he",
        -8.650592251803952
      ],
      [
        "难",
        -8.651168200781651
      ],
      [
        "生产",
        -8.651410048922305
      ],
      [
        "苏",
        -8.65176208261503
      ],
      [
        "事件",
        -8.654428790083102
      ],
      [
        "片",
        -8.654678174755066
      ],
      [
        "宁",
        -8.657073261557803
      ],
      [
        "方式",
        -8.658177661899833
      ],
      [
        "》(",
        -8.658836217244609
      ],
      [
        "铁",
        -8.65976888602526
      ],
      [
        "物",
        -8.660154522684172
      ],
      [
        "~",
        -8.660945480061502
      ],
      [
        "只有",
        -8.661424377919102
      ],
      [
        "奖",
        -8.661571237374089
      ],
      [
        "旅游",
        -8.661571809620048
      ],
      [
        "之后,",
        -8.66283146458562
      ],
      [
        "历史",
        -8.663604554164937
      ],
      [
        "瓦",
        -8.664901702029669
      ],
      [
        "获",
        -8.665293292775496
      ],
      [
        "普",
        -8.665325659252229
      ],
      [
        "病",
        -8.665449685618725
      ],
      [
        "股",
        -8.666107874067741
      ],
      [
        "深",
        -8.66664356003862
      ],
      [
        "实施",
        -8.666942421493935
      ],
      [
        "网站",
        -8.667213481814956
      ],
      [
        "利用",
        -8.668250636559403
      ],
      [
        "》、《",
        -8.669236674164095
      ],
      [
        "F",
        -8.670823263634484
      ],
      [
        "永",
        -8.671401256719
      ],
      [
        "超过",
        -8.672278555118588
      ],
      [
        "存在",
        -8.672423184377552
      ],
      [
        "令",
        -8.672475441341165
      ],
      [
        "死",
        -8.67308441238718
      ],
      [
        "保",
        -8.67328799772587
      ],
      [
        "院",
        -8.674135284276941
      ],
      [
        "康",
        -8.674344271034409
      ],
      [
        "with",
        -8.675962085297803
      ],
      [
        "2014",
        -8.675987924169002
      ],
      [
        "吴",
        -8.677024703013307
      ],
      [
        "持续",
        -8.677041153745785
      ],
      [
        "托",
        -8.679144145361402
      ],
      [
        "re",
        -8.679227115608693
      ],
      [
        "角",
        -8.681456594281682
      ],
      [
        "新闻",
        -8.681674509876194
      ],
      [
        "百",
        -8.681731831098773
      ],
      [
        "德国",
        -8.682051065830647
      ],
      [
        "反",
        -8.685284048682384
      ],
      [
        "50",
        -8.686591949417071
      ],
      [
        "快",
        -8.687094822836558
      ],
      [
        "便",
        -8.689046006097707
      ],
      [
        "联",
        -8.689621571937765
      ],
      [
        "影响",
        -8.691236171680087
      ],
      [
        "得到",
        -8.691305695738919
      ],
      [
        "很多",
        -8.692888102138879
      ],
      [
        "交",
        -8.694898784384865
      ],
      [
        "没",
        -8.695178666389815
      ],
      [
        "近日,",
        -8.696395483026674
      ],
      [
        "洛",
        -8.696957547358545
      ],
      [
        "具有",
        -8.697664414200917
      ],
      [
        "兴",
        -8.698010384844437
      ],
      [
        "部门",
        -8.698464735676039
      ],
      [
        "能够",
        -8.699639622546018
      ],
      [
        "关",
        -8.699917577926788
      ],
      [
        "梅",
        -8.700019973188988
      ],
      [
        "发行",
        -8.701522812696785
      ],
      [
        "员",
        -8.701527071836253
      ],
      [
        "未来",
        -8.702115221272619
      ],
      [
        "P",
        -8.703064509514606
      ],
      [
        "说,",
        -8.703358157403834
      ],
      [
        "不同",
        -8.703853040721262
      ],
      [
        "家庭",
        -8.704334751850057
      ],
      [
        "调查",
        -8.70498273536332
      ],
      [
        "泰",
        -8.705942930805934
      ],
      [
        "半",
        -8.706989185782717
      ],
      [
        "保护",
        -8.707223873714767
      ],
      [
        "低",
        -8.707357301340725
      ],
      [
        "列车",
        -8.71087476740137
      ],
      [
        "鲁",
        -8.711151768966792
      ],
      [
        "接受",
        -8.71150289247735
      ],
      [
        "工",
        -8.7118479862831
      ],
      [
        "D",
        -8.712234477339415
      ],
      [
        "标准",
        -8.71241285705326
      ],
      [
        "关于",
        -8.712618025164808
      ],
      [
        "志",
        -8.713212384453433
      ],
      [
        "党",
        -8.71352641078515
      ],
      [
        "干",
        -8.713539238997564
      ],
      [
        "色",
        -8.71367360318424
      ],
      [
        "said",
        -8.713805080112975
      ],
      [
        "18",
        -8.714472878945685
      ],
      [
        "变",
        -8.714479373144458
      ],
      [
        "推出",
        -8.716286806010155
      ],
      [
        "希望",
        -8.717277128191258
      ],
      [
        "春",
        -8.718038973721457
      ],
      [
        "欧洲",
        -8.718309201810076
      ],
      [
        "16",
        -8.719089895999161
      ],
      [
        "应用",
        -8.720075582246107
      ],
      [
        "买",
        -8.721723344339688
      ],
      [
        "十",
        -8.72218629516122
      ],
      [
        "玉",
        -8.722671104989058
      ],
      [
        "指",
        -8.723983304544873
      ],
      [
        "选",
        -8.726698956619135
      ],
      [
        "也是",
        -8.729089862447992
      ],
      [
        "群",
        -8.729614537293877
      ],
      [
        "机场",
        -8.730248889410218
      ],
      [
        "初",
        -8.731016687540084
      ],
      [
        "增加",
        -8.731461963008977
      ],
      [
        "像",
        -8.733651474449502
      ],
      [
        "地方",
        -8.735244652855204
      ],
      [
        "a",
        -8.737150618696102
      ],
      [
        "▁\n",
        -8.737450852805752
      ],
      [
        "根",
        -8.739320208727987
      ],
      [
        "▁The",
        -8.74048080684456
      ],
      [
        "树",
        -8.741104029798652
      ],
      [
        "跟",
        -8.741536242261994
      ],
      [
        "升",
        -8.742295801746135
      ],
      [
        "迪",
        -8.743137476871501
      ],
      [
        "t",
        -8.744933355000839
      ],
      [
        "T",
        -8.745242959206424
      ],
      [
        "再次",
        -8.748573995265216
      ],
      [
        "字",
        -8.750042562134903
      ],
      [
        "期间",
        -8.75045558121234
      ],
      [
        "瑞",
        -8.752046458495794
      ],
      [
        "有关",
        -8.752478410508331
      ],
      [
        "受到",
        -8.754221986242756
      ],
      [
        "收",
        -8.754685281353677
      ],
      [
        "增长",
        -8.7547951051335
      ],
      [
        "一家",
        -8.755465997262899
      ],
      [
        "▁A",
        -8.7556050312064
      ],
      [
        "移动",
        -8.756284517225804
      ],
      [
        "L",
        -8.757439376117238
      ],
      [
        "▁201",
        -8.758404954553676
      ],
      [
        "当时",
        -8.759243618594297
      ],
      [
        "府",
        -8.761970339155717
      ],
      [
        "改",
        -8.762763808120361
      ],
      [
        "制作",
        -8.765074772262054
      ],
      [
        "音",
        -8.765544825091924
      ],
      [
        "加入",
        -8.765561551401376
      ],
      [
        "萨",
        -8.767483360385034
      ],
      [
        "器",
        -8.767706170627207
      ],
      [
        "儿",
        -8.769796255543854
      ],
      [
        "政",
        -8.770349883166153
      ],
      [
        "列",
        -8.770717224442745
      ],
      [
        "今日",
        -8.772105343437188
      ],
      [
        "香",
        -8.775086365142064
      ],
      [
        "孩子",
        -8.775180795184692
      ],
      [
        "年12月",
        -8.77535911073186
      ],
      [
        "常",
        -8.776565606839677
      ],
      [
        "由于",
        -8.777027328416809
      ],
      [
        "教",
        -8.778280789559894
      ],
      [
        "上的",
        -8.778497739831508
      ],
      [
        "建立",
        -8.779629488877685
      ],
      [
        ",也",
        -8.779990997139864
      ],
      [
        "现在",
        -8.780165105244858
      ],
      [
        "情况",
        -8.780625615107748
      ],
      [
        "最高",
        -8.78101037066257
      ],
      [
        "ch",
        -8.782042624367199
      ],
      [
        "季",
        -8.784388213381233
      ],
      [
        "al",
        -8.784910490319552
      ],
      [
        "100",
        -8.786791027945755
      ],
      [
        "年度",
        -8.787594599700803
      ],
      [
        "勒",
        -8.787671254561117
      ],
      [
        "之后",
        -8.78770565835029
      ],
      [
        "不是",
        -8.787745958630307
      ],
      [
        "仅",
        -8.78802295454449
      ],
      [
        "近日",
        -8.78931686449876
      ],
      [
        "广告",
        -8.789382259449564
      ],
      [
        "伯",
        -8.789493905963175
      ],
      [
        ",以及",
        -8.790920003354731
      ],
      [
        "韩国",
        -8.792344942584878
      ],
      [
        "直",
        -8.792911100502511
      ],
      [
        "控制",
        -8.794236018792462
      ],
      [
        "改革",
        -8.795200484329529
      ],
      [
        "传",
        -8.797844287546601
      ],
      [
        "购买",
        -8.798102658805497
      ],
      [
        "关系",
        -8.799374639982263
      ],
      [
        "比赛",
        -8.801851961380018
      ],
      [
        "学习",
        -8.80220956682623
      ],
      [
        "13",
        -8.802560394137204
      ],
      [
        "这一",
        -8.802584462495831
      ],
      [
        "ly",
        -8.802960373077886
      ],
      [
        "情",
        -8.803697940626922
      ],
      [
        "堂",
        -8.804586911662632
      ],
      [
        "的一个",
        -8.805351019889564
      ],
      [
        "每",
        -8.805540453881386
      ],
      [
        "油",
        -8.806332132577692
      ],
      [
        "投资者",
        -8.806528295116944
      ],
      [
        "提",
        -8.807349196070305
      ],
      [
        "源",
        -8.808048515740118
      ],
      [
        "园",
        -8.80981323246736
      ],
      [
        "最终",
        -8.811087228566237
      ],
      [
        "越",
        -8.812424462533686
      ],
      [
        "▁de",
        -8.812966340035269
      ],
      [
        "基本",
        -8.813140084198205
      ],
      [
        "客",
        -8.813497507824565
      ],
      [
        "设备",
        -8.813571228617608
      ],
      [
        "。该",
        -8.814340256126123
      ],
      [
        "占",
        -8.816816756827334
      ],
      [
        "市民",
        -8.817660988251435
      ],
      [
        "土",
        -8.817936394620975
      ],
      [
        "曲",
        -8.818545664786836
      ],
      [
        "男",
        -8.818915532665844
      ],
      [
        "一直",
        -8.81958601358631
      ],
      [
        "这种",
        -8.819647697050838
      ],
      [
        "▁200",
        -8.8201947652264
      ],
      [
        "公开",
        -8.821686404464135
      ],
      [
        "品",
        -8.822068624130111
      ],
      [
        "电视",
        -8.823794165350577
      ],
      [
        "雅",
        -8.824349665517934
      ],
      [
        ",他们",
        -8.826376153984322
      ],
      [
        "丁",
        -8.82708172322882
      ],
      [
        "航空",
        -8.828696177236917
      ],
      [
        "包",
        -8.829610330038204
      ],
      [
        "▁\n\n",
        -8.830703708469956
      ],
      [
        "一次",
        -8.831374642534064
      ],
      [
        "达到",
        -8.832184400195805
      ],
      [
        "即",
        -8.832551510607527
      ],
      [
        "同时",
        -8.83267676427668
      ],
      [
        "轮",
        -8.834333073833225
      ],
      [
        "经营",
        -8.83443720160172
      ],
      [
        "男子",
        -8.834778825611806
      ],
      [
        "少",
        -8.8350100276013
      ],
      [
        "2013",
        -8.835875940353075
      ],
      [
        "药",
        -8.838264816975329
      ],
      [
        "如何",
        -8.838759224493105
      ],
      [
        "意",
        -8.838996440404088
      ],
      [
        "进一步",
        -8.83912921965681
      ],
      [
        "居",
        -8.839290766701392
      ],
      [
        "14",
        -8.839405575009852
      ],
      [
        "消费者",
        -8.84009278822016
      ],
      [
        "朝",
        -8.84197024984004
      ],
      [
        ",该",
        -8.843025932332798
      ],
      [
        "共同",
        -8.84382661510982
      ],
      [
        ",“",
        -8.844211059453167
      ],
      [
        "专业",
        -8.844271966779925
      ],
      [
        "60",
        -8.844422071537796
      ],
      [
        "井",
        -8.844518260938496
      ],
      [
        "库",
        -8.84454537033144
      ],
      [
        "胡",
        -8.845299469906454
      ],
      [
        "不断",
        -8.845870035422394
      ],
      [
        "0",
        -8.846238676087925
      ],
      [
        ",有",
        -8.846287318896335
      ],
      [
        "治",
        -8.846623001045659
      ],
      [
        "实",
        -8.846783025135359
      ],
      [
        "吗?",
        -8.847226315216822
      ],
      [
        "希",
        -8.8477362492196
      ],
      [
        ",因为",
        -8.848069677950772
      ],
      [
        "提出",
        -8.84877791649114
      ],
      [
        "边",
        -8.850573698066722
      ],
      [
        "齐",
        -8.851300114676787
      ],
      [
        "申请",
        -8.851300702531564
      ],
      [
        "秀",
        -8.851621580953324
      ],
      [
        "价",
        -8.851671431003004
      ],
      [
        "之间",
        -8.85214834766837
      ],
      [
        "放",
        -8.852551570178308
      ],
      [
        "仍",
        -8.853107140026824
      ],
      [
        "第三",
        -8.854046499823244
      ],
      [
        "40",
        -8.856177097349189
      ],
      [
        "执行",
        -8.856353664176178
      ],
      [
        "处理",
        -8.856399614693023
      ],
      [
        "分别",
        -8.85709827941045
      ],
      [
        "谷",
        -8.858046956814519
      ],
      [
        "表",
        -8.858373044658068
      ],
      [
        "消费",
        -8.858408510704752
      ],
      [
        "全部",
        -8.858760043982379
      ],
      [
        "房地产",
        -8.85906266088451
      ],
      [
        "独立",
        -8.859737787992607
      ],
      [
        "副",
        -8.86037653570335
      ],
      [
        "并不",
        -8.860627443027086
      ],
      [
        "特别",
        -8.860635997026115
      ],
      [
        "一种",
        -8.860849214231159
      ],
      [
        "节目",
        -8.861122323109301
      ],
      [
        "球队",
        -8.861826439898891
      ],
      [
        "の",
        -8.863394988779307
      ],
      [
        ",所以",
        -8.863767373453287
      ],
      [
        "印度",
        -8.864298774718076
      ],
      [
        "前往",
        -8.86440662501063
      ],
      [
        "人口",
        -8.864726200296175
      ],
      [
        "领域",
        -8.864912736743129
      ],
      [
        "司",
        -8.865395736013989
      ],
      [
        "他的",
        -8.86733525711939
      ],
      [
        "的人",
        -8.868577281105935
      ],
      [
        "是否",
        -8.869242111378844
      ],
      [
        "案",
        -8.870528830438193
      ],
      [
        "船",
        -8.870547661241304
      ],
      [
        "卖",
        -8.870980540888374
      ],
      [
        "在201",
        -8.871071978127
      ],
      [
        "眼",
        -8.872774115580656
      ],
      [
        "唐",
        -8.8730916178703
      ],
      [
        "丽",
        -8.873329950270064
      ],
      [
        "in",
        -8.874689372043559
      ],
      [
        "游",
        -8.876310651032671
      ],
      [
        "寺",
        -8.878025778805688
      ],
      [
        "・",
        -8.878536266267135
      ],
      [
        "▁at",
        -8.878618891903606
      ],
      [
        "富",
        -8.879484791399172
      ],
      [
        ",从",
        -8.879871709875973
      ],
      [
        "族",
        -8.88023189375231
      ],
      [
        "运营",
        -8.881725620837269
      ],
      [
        "理",
        -8.883275837028433
      ],
      [
        "威",
        -8.884549740810291
      ],
      [
        "各种",
        -8.885242376334817
      ],
      [
        "17",
        -8.885717937522184
      ],
      [
        "任何",
        -8.886394302351892
      ],
      [
        "ne",
        -8.887285288524366
      ],
      [
        "町",
        -8.887494623660892
      ],
      [
        "运动",
        -8.888179616793945
      ],
      [
        "别",
        -8.888458921145718
      ],
      [
        "届",
        -8.889485774102216
      ],
      [
        "人,",
        -8.889879769466276
      ],
      [
        "m",
        -8.890571987324352
      ],
      [
        "25",
        -8.890852223919046
      ],
      [
        "牛",
        -8.891013734108935
      ],
      [
        "举行",
        -8.891315497184488
      ],
      [
        "较",
        -8.891400941593064
      ],
      [
        "杰",
        -8.891575436886791
      ],
      [
        "作品",
        -8.891690162497117
      ],
      [
        "收购",
        -8.892911656084259
      ],
      [
        "收入",
        -8.893410070736424
      ],
      [
        "商业",
        -8.8934714016506
      ],
      [
        ")是",
        -8.893665363371975
      ],
      [
        "曼",
        -8.893684596842029
      ],
      [
        "取得",
        -8.893739847106746
      ],
      [
        "校",
        -8.895882736397882
      ],
      [
        "▁c",
        -8.896899328853083
      ],
      [
        "艺术",
        -8.897863601680484
      ],
      [
        "居民",
        -8.897907900377179
      ],
      [
        "经过",
        -8.898266257755811
      ],
      [
        "时代",
        -8.898900429515178
      ],
      [
        ":“",
        -8.899127967959403
      ],
      [
        ",对",
        -8.899340762284945
      ],
      [
        "数量",
        -8.899775285008761
      ],
      [
        "N",
        -8.899950233863255
      ],
      [
        "员工",
        -8.900024017811768
      ],
      [
        ",她",
        -8.901527197275144
      ],
      [
        "苹果",
        -8.902666980962834
      ],
      [
        "雪",
        -8.903227724536057
      ],
      [
        "住",
        -8.904004184335424
      ],
      [
        "许多",
        -8.90406546165297
      ],
      [
        "景",
        -8.904185306190618
      ],
      [
        "采用",
        -8.90523422414068
      ],
      [
        "上,",
        -8.905364261627177
      ],
      [
        "了。",
        -8.905692854730573
      ],
      [
        "社区",
        -8.90649899114558
      ],
      [
        "团队",
        -8.908501460198758
      ],
      [
        "盘",
        -8.908629774425622
      ],
      [
        "现场",
        -8.910922247442093
      ],
      [
        "今天",
        -8.911802144211261
      ],
      [
        "传统",
        -8.912842414429566
      ],
      [
        "更多",
        -8.912869097320911
      ],
      [
        "微",
        -8.913155423849242
      ],
      [
        "形成",
        -8.91345796745789
      ],
      [
        "朱",
        -8.914915705099897
      ],
      [
        "创新",
        -8.91581327329846
      ],
      [
        "底",
        -8.916814149564837
      ],
      [
        "满",
        -8.917085742930734
      ],
      [
        "修",
        -8.918006399583772
      ],
      [
        "资源",
        -8.918490270963481
      ],
      [
        "之前",
        -8.918622333366717
      ],
      [
        "▁as",
        -8.921180721603168
      ],
      [
        "毛",
        -8.923451908179562
      ],
      [
        "解决",
        -8.92390831265516
      ],
      [
        "血",
        -8.923979264665524
      ],
      [
        "模式",
        -8.924017178204394
      ],
      [
        "调整",
        -8.92472842807609
      ],
      [
        "动",
        -8.924890386481819
      ],
      [
        "若",
        -8.925249668347528
      ],
      [
        "共和国",
        -8.925452944735284
      ],
      [
        "足球",
        -8.925776915268143
      ],
      [
        "厂",
        -8.925939900223504
      ],
      [
        "装",
        -8.926722050577068
      ],
      [
        "会议",
        -8.926930133959809
      ],
      [
        "完全",
        -8.927232980611187
      ],
      [
        "为了",
        -8.927797038430187
      ],
      [
        "价值",
        -8.927993709005447
      ],
      [
        "村、",
        -8.928296345733143
      ],
      [
        "分析",
        -8.928377782965223
      ],
      [
        "广州",
        -8.928489153404293
      ],
      [
        "尾",
        -8.929309279837513
      ],
      [
        "成本",
        -8.930662483770648
      ],
      [
        "▁f",
        -8.932228295100412
      ],
      [
        "草",
        -8.933512125495636
      ],
      [
        "ther",
        -8.933866954145993
      ],
      [
        "酒",
        -8.934980867793554
      ],
      [
        ",201",
        -8.935105461755866
      ],
      [
        "庄",
        -8.935661384739877
      ],
      [
        ",同时",
        -8.935826280106587
      ],
      [
        "社",
        -8.936376992797046
      ],
      [
        "健康",
        -8.936572717392076
      ],
      [
        "馆",
        -8.936755510082993
      ],
      [
        "甲",
        -8.936858533662209
      ],
      [
        "办",
        -8.938082242549314
      ],
      [
        "+",
        -8.938423947862397
      ],
      [
        ",并且",
        -8.939152989859862
      ],
      [
        "规模",
        -8.94121441256072
      ],
      [
        "负责",
        -8.941808224536118
      ],
      [
        "昨日",
        -8.94183645006285
      ],
      [
        "结构",
        -8.942027231493201
      ],
      [
        "莫",
        -8.94306836937812
      ],
      [
        "易",
        -8.943075194397384
      ],
      [
        "当地",
        -8.9431011391733
      ],
      [
        "视频",
        -8.944477629521701
      ],
      [
        "重新",
        -8.945915224924589
      ],
      [
        "区域",
        -8.946956690158595
      ],
      [
        "支付",
        -8.947232504731758
      ],
      [
        "一般",
        -8.948496848230109
      ],
      [
        "比较",
        -8.948964819723695
      ],
      [
        "工业",
        -8.948997871277138
      ],
      [
        "女子",
        -8.949593692998567
      ],
      [
        "取",
        -8.94970714999656
      ],
      [
        ",目前",
        -8.950420930837995
      ],
      [
        "公布",
        -8.952102116277333
      ],
      [
        "▁--",
        -8.952606524105859
      ],
      [
        "W",
        -8.952671991365397
      ],
      [
        "食",
        -8.953018269025248
      ],
      [
        "写",
        -8.95310490336144
      ],
      [
        "旧",
        -8.953264047805103
      ],
      [
        "嘉",
        -8.953556936353614
      ],
      [
        "▁con",
        -8.953643614477473
      ],
      [
        "孙",
        -8.95427412909759
      ],
      [
        "上市",
        -8.955128302851932
      ],
      [
        "提高",
        -8.957874914927231
      ],
      [
        "。200",
        -8.958163284191569
      ],
      [
        "泽",
        -8.960053752221048
      ],
      [
        "层",
        -8.960441852919535
      ],
      [
        "公园",
        -8.961343518599197
      ],
      [
        "看到",
        -8.961686859886262
      ],
      [
        "成员",
        -8.962710203835314
      ],
      [
        "19",
        -8.962761929218193
      ],
      [
        ",中国",
        -8.96392858710423
      ],
      [
        "言",
        -8.964439757230641
      ],
      [
        "能力",
        -8.964713374138663
      ],
      [
        "H",
        -8.965169120918725
      ],
      [
        "欧",
        -8.965425046887612
      ],
      [
        "思",
        -8.965456057412872
      ],
      [
        "贝",
        -8.965755858873786
      ],
      [
        "系列",
        -8.965826778234987
      ],
      [
        "界",
        -8.966041669655054
      ],
      [
        "▁I",
        -8.966135121732783
      ],
      [
        "塞",
        -8.966776804124285
      ],
      [
        "主席",
        -8.967288327609433
      ],
      [
        "女性",
        -8.967733000814537
      ],
      [
        "温",
        -8.967783367166497
      ],
      [
        "融资",
        -8.969052728964638
      ],
      [
        "考",
        -8.969707530437105
      ],
      [
        "莱",
        -8.969739607994915
      ],
      [
        "千",
        -8.971279602741907
      ],
      [
        "排",
        -8.973557815114098
      ],
      [
        "话",
        -8.974900060737967
      ],
      [
        "继",
        -8.975431053723938
      ],
      [
        "产生",
        -8.975610328882944
      ],
      [
        "属于",
        -8.975912257561587
      ],
      [
        "款",
        -8.976440374793775
      ],
      [
        "必须",
        -8.976537917619465
      ],
      [
        "左",
        -8.977012422951788
      ],
      [
        "复",
        -8.977351445579732
      ],
      [
        "针对",
        -8.97762655453823
      ],
      [
        "赵",
        -8.978694310670969
      ],
      [
        "送",
        -8.97874348221019
      ],
      [
        "功能",
        -8.979722217125204
      ],
      [
        "飞机",
        -8.979981155753842
      ],
      [
        "室",
        -8.979997689316566
      ],
      [
        "是一个",
        -8.980990110933636
      ],
      [
        "人民",
        -8.98134579302145
      ],
      [
        "知",
        -8.98134706668739
      ],
      [
        "梁",
        -8.981771304475087
      ],
      [
        "于200",
        -8.981871212403172
      ],
      [
        "夏",
        -8.982033863002549
      ],
      [
        "开展",
        -8.983009906019596
      ],
      [
        "ir",
        -8.983221747639373
      ],
      [
        "一位",
        -8.98364416821296
      ],
      [
        "封",
        -8.984241695390144
      ],
      [
        "th",
        -8.984567672699725
      ],
      [
        "按",
        -8.985082199511629
      ],
      [
        "礼",
        -8.987231959058997
      ],
      [
        "大量",
        -8.988102600836795
      ],
      [
        "。这",
        -8.990446851042847
      ],
      [
        "伦",
        -8.990657013119954
      ],
      [
        "灵",
        -8.990735025435935
      ],
      [
        "银",
        -8.992232170776523
      ],
      [
        "画",
        -8.993339177471997
      ],
      [
        "o",
        -8.993824254133875
      ],
      [
        "综合",
        -8.994514077054621
      ],
      [
        "进行了",
        -8.995178097908527
      ],
      [
        "▁it",
        -8.995471798331819
      ],
      [
        "接",
        -8.99585455140486
      ],
      [
        "溪",
        -8.99591734002198
      ],
      [
        "酒店",
        -8.997078248797441
      ],
      [
        "▁pro",
        -8.997680596869937
      ],
      [
        "甚至",
        -8.999824582021185
      ],
      [
        "牌",
        -9.000067321636077
      ],
      [
        "杜",
        -9.000568874858953
      ],
      [
        "南京",
        -9.000617667578753
      ],
      [
        "年10月",
        -9.002290124022245
      ],
      [
        "还有",
        -9.003253077166367
      ],
      [
        "仁",
        -9.0040588337403
      ],
      [
        "不会",
        -9.005278965422871
      ],
      [
        "客户",
        -9.006681120770974
      ],
      [
        "投",
        -9.008518680057955
      ],
      [
        "到了",
        -9.008753532002896
      ],
      [
        ",让",
        -9.009234414869956
      ],
      [
        "▁his",
        -9.00961247195956
      ],
      [
        "佛",
        -9.009840074143174
      ],
      [
        ":\n",
        -9.00985364953159
      ],
      [
        "先生",
        -9.010547715213914
      ],
      [
        "京",
        -9.011820682190068
      ],
      [
        "科学",
        -9.01319441831488
      ],
      [
        "专家",
        -9.015089863051587
      ],
      [
        "股份",
        -9.0153605692937
      ],
      [
        ",与",
        -9.015988036149816
      ],
      [
        "V",
        -9.01605111207823
      ],
      [
        "电子",
        -9.018110813277994
      ],
      [
        "联盟",
        -9.018447302663883
      ],
      [
        "全面",
        -9.021196450106771
      ],
      [
        "关注",
        -9.021798177056812
      ],
      [
        "on",
        -9.023277759474222
      ],
      [
        "▁C",
        -9.024144175145224
      ],
      [
        "政治",
        -9.02600947279713
      ],
      [
        "峰",
        -9.026254620576909
      ],
      [
        "最大的",
        -9.027815998967313
      ],
      [
        "风险",
        -9.028020602629784
      ],
      [
        "行为",
        -9.029973019040607
      ],
      [
        "形",
        -9.030485425590904
      ],
      [
        "刚",
        -9.030581349605647
      ],
      [
        "制度",
        -9.030721402881722
      ],
      [
        "菜",
        -9.032449354610176
      ],
      [
        "se",
        -9.033165957514743
      ],
      [
        "登",
        -9.0356639197357
      ],
      [
        "亲",
        -9.035935374686757
      ],
      [
        "导致",
        -9.03659413242572
      ],
      [
        "警方",
        -9.036692823232826
      ],
      [
        "拿",
        -9.03725917124332
      ],
      [
        "R",
        -9.037755203675136
      ],
      [
        "帮助",
        -9.037859575900134
      ],
      [
        "人民币",
        -9.039451706993066
      ],
      [
        "或者",
        -9.03984748050963
      ],
      [
        "规划",
        -9.040152734532272
      ],
      [
        "索",
        -9.04045638440336
      ],
      [
        "农",
        -9.040645641681955
      ],
      [
        "感",
        -9.040693991395234
      ],
      [
        "良",
        -9.041300880686688
      ],
      [
        "交通",
        -9.042244758197814
      ],
      [
        "端",
        -9.042885402957944
      ],
      [
        "食品",
        -9.0430852417271
      ],
      [
        "p",
        -9.044454997786415
      ],
      [
        "领",
        -9.044715120057598
      ],
      [
        "卷",
        -9.044730414986104
      ],
      [
        "22",
        -9.04492110471624
      ],
      [
        "附近",
        -9.045022769182184
      ],
      [
        "报告",
        -9.04704850931738
      ],
      [
        "法律",
        -9.047327924952702
      ],
      [
        "许",
        -9.047890632851567
      ],
      [
        ",我们",
        -9.048474135996408
      ],
      [
        "余",
        -9.049558114226253
      ],
      [
        "by",
        -9.050702694606404
      ],
      [
        "an",
        -9.051978884310246
      ],
      [
        "连续",
        -9.052083191945371
      ],
      [
        "深圳",
        -9.052542093361868
      ],
      [
        "兼",
        -9.053111116264107
      ],
      [
        "年11月",
        -9.053729131995182
      ],
      [
        "庆",
        -9.056442458997733
      ],
      [
        "重点",
        -9.056597297740511
      ],
      [
        "尚",
        -9.056627728792234
      ],
      [
        ",而且",
        -9.056952502553708
      ],
      [
        "自由",
        -9.057408602749462
      ],
      [
        "网友",
        -9.057465484048944
      ],
      [
        "下,",
        -9.059274606881509
      ],
      [
        "提升",
        -9.060578991258843
      ],
      [
        "严重",
        -9.060787776928418
      ],
      [
        "新的",
        -9.0607965939119
      ],
      [
        "守",
        -9.060939585723712
      ],
      [
        "微信",
        -9.061597309846478
      ],
      [
        "君",
        -9.061631908357514
      ],
      [
        "早",
        -9.062903395602406
      ],
      [
        "母",
        -9.063169357253502
      ],
      [
        "徐",
        -9.066276715892911
      ],
      [
        "隆",
        -9.067265452286511
      ],
      [
        "丰",
        -9.067328542021876
      ],
      [
        "报道,",
        -9.06742646900144
      ],
      [
        "查",
        -9.06783367591032
      ],
      [
        ",\"",
        -9.068462984528786
      ],
      [
        ",如",
        -9.068534205626246
      ],
      [
        "值",
        -9.069048732182353
      ],
      [
        "冠军",
        -9.069263916444186
      ],
      [
        ",成为",
        -9.069410284043922
      ],
      [
        "设",
        -9.0704140315584
      ],
      [
        "俱乐部",
        -9.071164689980291
      ],
      [
        "歌",
        -9.071466184866049
      ],
      [
        "免费",
        -9.071808458094326
      ],
      [
        "韩",
        -9.07266469556168
      ],
      [
        "章",
        -9.073807093356807
      ],
      [
        "21",
        -9.074357489192984
      ],
      [
        "顺",
        -9.074591351542876
      ],
      [
        "运",
        -9.075057315106411
      ],
      [
        "夜",
        -9.075117080214808
      ],
      [
        "营",
        -9.075723510267718
      ],
      [
        "表现",
        -9.076483671418131
      ],
      [
        "时期",
        -9.07761164616852
      ],
      [
        "have",
        -9.077725360735464
      ],
      [
        "假",
        -9.077800120185758
      ],
      [
        "推进",
        -9.079702113356996
      ],
      [
        "姆",
        -9.07978226489153
      ],
      [
        ",我",
        -9.082098886623228
      ],
      [
        "请",
        -9.082718418152725
      ],
      [
        "票",
        -9.083891514866298
      ],
      [
        "乌",
        -9.083903158390086
      ],
      [
        "微博",
        -9.084065570221496
      ],
      [
        ",且",
        -9.085479573546936
      ],
      [
        "or",
        -9.086329652375436
      ],
      [
        "惠",
        -9.086551524852828
      ],
      [
        "长期",
        -9.089462269073216
      ],
      [
        "官员",
        -9.090190898456688
      ],
      [
        "脚",
        -9.090450695669483
      ],
      [
        "日前",
        -9.090532023188263
      ],
      [
        "准备",
        -9.090539572741964
      ],
      [
        "认为,",
        -9.090962071772063
      ],
      [
        "宋",
        -9.093197647112326
      ],
      [
        ")的",
        -9.093571742360616
      ],
      [
        "防",
        -9.09426399370653
      ],
      [
        "车辆",
        -9.094310462505533
      ],
      [
        "何",
        -9.094549310856785
      ],
      [
        "且",
        -9.094918353855896
      ],
      [
        "艾",
        -9.095064198029515
      ],
      [
        "荣",
        -9.09569715102997
      ],
      [
        "什么",
        -9.095812329576098
      ],
      [
        "证",
        -9.096491729120666
      ],
      [
        "。\n在",
        -9.096793249142914
      ],
      [
        "遭",
        -9.096891609223462
      ],
      [
        "记",
        -9.097021416531565
      ],
      [
        "软件",
        -9.097091815690248
      ],
      [
        "应该",
        -9.09717350850015
      ],
      [
        "智",
        -9.09730124073612
      ],
      [
        "随着",
        -9.098592496948555
      ],
      [
        "谢",
        -9.099701210417514
      ],
      [
        "d",
        -9.101228257217636
      ],
      [
        "故事",
        -9.101486644854598
      ],
      [
        "大型",
        -9.101879009527876
      ],
      [
        "人类",
        -9.102170639847635
      ],
      [
        "地铁",
        -9.102622049100898
      ],
      [
        "菲",
        -9.103809830114916
      ],
      [
        "减少",
        -9.10393106362352
      ],
      [
        "板",
        -9.104105379272305
      ],
      [
        "归",
        -9.10429121130928
      ],
      [
        "果",
        -9.104863865632923
      ],
      [
        "一年",
        -9.10503936688049
      ],
      [
        "留",
        -9.10584309383787
      ],
      [
        ",即",
        -9.106273376921475
      ],
      [
        "24",
        -9.106346598816211
      ],
      [
        "2012",
        -9.107023815439986
      ],
      [
        "儿童",
        -9.109093034437572
      ],
      [
        "球员",
        -9.109504452724478
      ],
      [
        "协会",
        -9.10962024544151
      ],
      [
        "》,",
        -9.109864073133032
      ],
      [
        "上市公司",
        -9.109906850223588
      ],
      [
        "拍摄",
        -9.1106882426693
      ],
      [
        "青年",
        -9.110729459413426
      ],
      [
        "80",
        -9.1122051261753
      ],
      [
        "ight",
        -9.112877669556712
      ],
      [
        "指数",
        -9.116584859759175
      ],
      [
        "户",
        -9.116598590209849
      ],
      [
        "from",
        -9.120448991206988
      ],
      [
        "▁w",
        -9.121441395108556
      ],
      [
        "剑",
        -9.12152643202326
      ],
      [
        "整个",
        -9.121802223239468
      ],
      [
        "帝",
        -9.12264419568944
      ],
      [
        "湾",
        -9.123104233137491
      ],
      [
        "蒙",
        -9.123467236836104
      ],
      [
        "往",
        -9.1240328050083
      ],
      [
        "我国",
        -9.124577310543929
      ],
      [
        "电商",
        -9.124577667913831
      ],
      [
        "核",
        -9.126639950656868
      ],
      [
        "内部",
        -9.127446576536515
      ],
      [
        "重要",
        -9.127678405325849
      ],
      [
        "亿",
        -9.12914808328184
      ],
      [
        "▁B",
        -9.129539369004084
      ],
      [
        "资本",
        -9.130230059816324
      ],
      [
        "几",
        -9.13046995498975
      ],
      [
        "降",
        -9.13125467609797
      ],
      [
        "领导",
        -9.132470094289143
      ],
      [
        "造成",
        -9.132652775605246
      ],
      [
        "自然",
        -9.133009443964117
      ],
      [
        "亚洲",
        -9.133178535926444
      ],
      [
        "盖",
        -9.133294555518953
      ],
      [
        "23",
        -9.133811840391544
      ],
      [
        "现代",
        -9.134809120858613
      ],
      [
        "\n生平\n",
        -9.135616847396678
      ],
      [
        "拍",
        -9.137944528046088
      ],
      [
        "右",
        -9.13821145678476
      ],
      [
        "空间",
        -9.13963659940522
      ],
      [
        "展",
        -9.139824701464091
      ],
      [
        "极",
        -9.139847817229542
      ],
      [
        "顿",
        -9.140114904232307
      ],
      [
        "虽然",
        -9.140320256507795
      ],
      [
        "。由于",
        -9.14041034966873
      ],
      [
        "赫",
        -9.14070893142364
      ],
      [
        "人们",
        -9.141098620178935
      ],
      [
        "▁are",
        -9.141537586945484
      ],
      [
        "雄",
        -9.141642160412063
      ],
      [
        "圈",
        -9.141994663799952
      ],
      [
        "环",
        -9.14243268215735
      ],
      [
        "离开",
        -9.14383613275399
      ],
      [
        "角色",
        -9.144511428742389
      ],
      [
        "埃",
        -9.144834179374586
      ],
      [
        "伟",
        -9.146215055346053
      ],
      [
        "资产",
        -9.146429512773546
      ],
      [
        "”、“",
        -9.146921699796083
      ],
      [
        "衣",
        -9.15012130769449
      ],
      [
        "杯",
        -9.15026636446414
      ],
      [
        "用于",
        -9.15046653931878
      ],
      [
        "法院",
        -9.151592708780775
      ],
      [
        "虎",
        -9.151813832938432
      ],
      [
        "儿子",
        -9.151866080396744
      ],
      [
        "过去",
        -9.152107916450536
      ],
      [
        "增",
        -9.152338644631683
      ],
      [
        "照",
        -9.152401242158197
      ],
      [
        "方向",
        -9.152874754875391
      ],
      [
        "忠",
        -9.15305811813291
      ],
      [
        "丹",
        -9.153073468993982
      ],
      [
        "土地",
        -9.15356852661786
      ],
      [
        "最后",
        -9.153624256344354
      ],
      [
        "命",
        -9.153754238451777
      ],
      [
        "▁an",
        -9.154400458362147
      ],
      [
        "郑",
        -9.154627310173128
      ],
      [
        "昌",
        -9.155078287416316
      ],
      [
        "保持",
        -9.155522837621207
      ],
      [
        "友",
        -9.15577688974761
      ],
      [
        "诗",
        -9.157189367639653
      ],
      [
        "蓝",
        -9.158738135038156
      ],
      [
        "玛",
        -9.158873633731002
      ],
      [
        "博物馆",
        -9.15911715150773
      ],
      [
        "兹",
        -9.15963285535297
      ],
      [
        "除",
        -9.15965410265118
      ],
      [
        "结",
        -9.15979655663163
      ],
      [
        "战争",
        -9.161094703227237
      ],
      [
        "离",
        -9.16245855210378
      ],
      [
        "改变",
        -9.163183197366898
      ],
      [
        "盛",
        -9.163641207623863
      ],
      [
        "近期",
        -9.164206409295256
      ],
      [
        "蒂",
        -9.16535598828894
      ],
      [
        "问",
        -9.165428989961756
      ],
      [
        "目标",
        -9.166344208258227
      ],
      [
        "导演",
        -9.168830602899272
      ],
      [
        "最佳",
        -9.169270838032384
      ],
      [
        "):",
        -9.17071234948562
      ],
      [
        "质",
        -9.170762021904366
      ],
      [
        "。“",
        -9.170873695188666
      ],
      [
        "演员",
        -9.171152832975546
      ],
      [
        "中学",
        -9.172397438533288
      ],
      [
        "官方",
        -9.172455167265118
      ],
      [
        "营销",
        -9.172570824696514
      ],
      [
        ")。\n",
        -9.17320034642886
      ],
      [
        "论",
        -9.173620490741026
      ],
      [
        "U",
        -9.173733463020866
      ],
      [
        "国务院",
        -9.173803524284272
      ],
      [
        "岩",
        -9.173963833838648
      ],
      [
        "如果",
        -9.174311429303412
      ],
      [
        "叫",
        -9.174448302605716
      ],
      [
        "支",
        -9.174718561080558
      ],
      [
        "创业",
        -9.175498259216292
      ],
      [
        "具",
        -9.176073964768428
      ],
      [
        "广场",
        -9.176483955025107
      ],
      [
        "贵",
        -9.176640322060765
      ],
      [
        "大家",
        -9.177811277952484
      ],
      [
        "套",
        -9.17909092758508
      ],
      [
        "晚",
        -9.179153924935996
      ],
      [
        "老人",
        -9.1801357605353
      ],
      [
        "体育",
        -9.18085625091678
      ],
      [
        "70",
        -9.1810896461226
      ],
      [
        "产",
        -9.181664267957371
      ],
      [
        "O",
        -9.18191273534426
      ],
      [
        "雨",
        -9.18275651550371
      ],
      [
        "卫",
        -9.182967033128255
      ],
      [
        "te",
        -9.18402528641248
      ],
      [
        "J",
        -9.184311141725775
      ],
      [
        "鸟",
        -9.18442422900494
      ],
      [
        "骨",
        -9.187697579995644
      ],
      [
        "藏",
        -9.187839393723596
      ],
      [
        "解",
        -9.188224955758972
      ],
      [
        "战略",
        -9.188257142634908
      ],
      [
        "去年",
        -9.18898254289518
      ],
      [
        "监管",
        -9.190462407999204
      ],
      [
        "建议",
        -9.19062218670646
      ],
      [
        "善",
        -9.191168247487465
      ],
      [
        "久",
        -9.191508265847762
      ],
      [
        "呢?",
        -9.191779031707757
      ],
      [
        "医生",
        -9.19228590815407
      ],
      [
        "联赛",
        -9.193639482708589
      ],
      [
        "状",
        -9.1937948884024
      ],
      [
        "动物",
        -9.193897126489183
      ],
      [
        "以下",
        -9.195176775331433
      ],
      [
        "\n历史\n",
        -9.196409091805696
      ],
      [
        "制造",
        -9.19650688238612
      ],
      [
        "目",
        -9.196966781801162
      ],
      [
        "短",
        -9.197644090396354
      ],
      [
        "退",
        -9.199663560909633
      ],
      [
        "临",
        -9.202458293277902
      ],
      [
        "推",
        -9.202707288658996
      ],
      [
        ",它",
        -9.202770762531314
      ],
      [
        "广东",
        -9.203145701833998
      ],
      [
        "不少",
        -9.203199747223527
      ],
      [
        "肉",
        -9.20346810365878
      ],
      [
        "平均",
        -9.204037379353576
      ],
      [
        "梦",
        -9.204172759968683
      ],
      [
        "顶",
        -9.20509357554708
      ],
      [
        "只是",
        -9.2073814573006
      ],
      [
        "换",
        -9.207767122896716
      ],
      [
        "读",
        -9.207817005760187
      ],
      [
        "项",
        -9.207912154313496
      ],
      [
        "招",
        -9.20796352997722
      ],
      [
        "开放",
        -9.208444811992337
      ],
      [
        "随",
        -9.208468984327476
      ],
      [
        "但",
        -9.208608193936156
      ],
      [
        ",也是",
        -9.209711861158208
      ],
      [
        "的《",
        -9.209807287318256
      ],
      [
        "▁not",
        -9.21030200908308
      ],
      [
        "朝鲜",
        -9.21060283465771
      ],
      [
        "第一次",
        -9.21071416302714
      ],
      [
        "c",
        -9.211314002031584
      ],
      [
        ",还",
        -9.213413057528742
      ],
      [
        "刀",
        -9.21401481934435
      ],
      [
        "屋",
        -9.214520606660956
      ],
      [
        "s.",
        -9.214598001432275
      ],
      [
        "轻",
        -9.216500781156835
      ],
      [
        "最近",
        -9.21796990489858
      ],
      [
        "素",
        -9.2184770481172
      ],
      [
        "国王",
        -9.21907341771392
      ],
      [
        ",这是",
        -9.219425162803692
      ],
      [
        "杀",
        -9.220400405247808
      ],
      [
        "洪",
        -9.221455433332432
      ],
      [
        "失",
        -9.22174433429534
      ],
      [
        "陆",
        -9.22283060602223
      ],
      [
        "冰",
        -9.223263350822975
      ],
      [
        "施",
        -9.224204314958522
      ],
      [
        "电视台",
        -9.225786332704171
      ],
      [
        "以上",
        -9.226620627202838
      ],
      [
        "帕",
        -9.228266764863994
      ],
      [
        "玩",
        -9.228530746645394
      ],
      [
        "茶",
        -9.22854067717142
      ],
      [
        "普通",
        -9.228914207084388
      ],
      [
        "has",
        -9.228980962265146
      ],
      [
        "补",
        -9.229453372319202
      ],
      [
        "赛季",
        -9.23065889307639
      ],
      [
        "k",
        -9.230716182068116
      ],
      [
        "设立",
        -9.230857484473445
      ],
      [
        "麦",
        -9.231077008271978
      ],
      [
        "出版",
        -9.231845855823606
      ],
      [
        "卢",
        -9.231924383664534
      ],
      [
        "之一。",
        -9.232243313731685
      ],
      [
        "将在",
        -9.23238127973786
      ],
      [
        "差",
        -9.234705295661565
      ],
      [
        "货",
        -9.23506708875401
      ],
      [
        "范围",
        -9.236680606975431
      ],
      [
        "这样的",
        -9.237002354038369
      ],
      [
        "带来",
        -9.238215684941975
      ],
      [
        "质量",
        -9.239146183807604
      ],
      [
        "竹",
        -9.240216997677871
      ],
      [
        "生物",
        -9.240712931782694
      ],
      [
        "活",
        -9.241372746744874
      ],
      [
        "证券",
        -9.241427221077853
      ],
      [
        "存",
        -9.241733905975432
      ],
      [
        "X",
        -9.242671068040824
      ],
      [
        "成都",
        -9.243383112195172
      ],
      [
        "细胞",
        -9.244005335579338
      ],
      [
        "考虑",
        -9.24437988086084
      ],
      [
        "坐",
        -9.245678546017349
      ],
      [
        "西班牙",
        -9.245878574758732
      ],
      [
        "教授",
        -9.246736142651198
      ],
      [
        "设有",
        -9.247725351016168
      ],
      [
        "父亲",
        -9.250323446217903
      ],
      [
        "延",
        -9.25066918910439
      ],
      [
        "破",
        -9.251653667233764
      ],
      [
        "老师",
        -9.251969019511
      ],
      [
        "。据",
        -9.252354749870086
      ],
      [
        ",被",
        -9.252739760760637
      ],
      [
        "更加",
        -9.252828942459171
      ],
      [
        "运行",
        -9.253025726432798
      ],
      [
        "案件",
        -9.253067748954864
      ],
      [
        "安排",
        -9.253258026852198
      ],
      [
        "水平",
        -9.253825697157945
      ],
      [
        "逐渐",
        -9.254075232364109
      ],
      [
        "连接",
        -9.25538231048408
      ],
      [
        ",可",
        -9.256962378279711
      ],
      [
        "指出,",
        -9.25726188953226
      ],
      [
        "观",
        -9.257833524957686
      ],
      [
        "凯",
        -9.258709011341566
      ],
      [
        "电话",
        -9.259478999056462
      ],
      [
        "\n200",
        -9.259575049393408
      ],
      [
        "落",
        -9.259680416680562
      ],
      [
        "整体",
        -9.259840043463786
      ],
      [
        "朗",
        -9.260082278488053
      ],
      [
        "了解",
        -9.26079452319696
      ],
      [
        "最大",
        -9.261502321397078
      ],
      [
        ",而是",
        -9.26151922619097
      ],
      [
        "视",
        -9.262396668972285
      ],
      [
        "26",
        -9.263017401885405
      ],
      [
        "祖",
        -9.26323177654195
      ],
      [
        "g",
        -9.265234298840197
      ],
      [
        "之间的",
        -9.2654381317675
      ],
      [
        "著名",
        -9.265684970858914
      ],
      [
        "也有",
        -9.266477381030263
      ],
      [
        ",你",
        -9.267601789457297
      ],
      [
        "ld",
        -9.267662630368228
      ],
      [
        "举办",
        -9.267893044001449
      ],
      [
        "晋",
        -9.268165702868362
      ],
      [
        "▁com",
        -9.26895069458387
      ],
      [
        "讲",
        -9.269022461647134
      ],
      [
        "在200",
        -9.269263961355508
      ],
      [
        ",最终",
        -9.27007216995341
      ],
      [
        "人物",
        -9.270197421087987
      ],
      [
        "期间,",
        -9.270538703838442
      ],
      [
        "喜欢",
        -9.270942737096542
      ],
      [
        "靠",
        -9.271630805987922
      ],
      [
        "厅",
        -9.272044416433369
      ],
      [
        "养",
        -9.272428257908135
      ],
      [
        "切",
        -9.273132866384774
      ],
      [
        "体验",
        -9.273278800364082
      ],
      [
        "设置",
        -9.273883224931817
      ],
      [
        "玩家",
        -9.275200052713794
      ],
      [
        ",就",
        -9.275424835223031
      ],
      [
        "。目前",
        -9.276049688776116
      ],
      [
        "b",
        -9.276816569250885
      ],
      [
        "词",
        -9.278841488188622
      ],
      [
        "件",
        -9.280020281980097
      ],
      [
        "需求",
        -9.280046706248314
      ],
      [
        "启动",
        -9.281554939333494
      ],
      [
        "部队",
        -9.281729782315358
      ],
      [
        "28",
        -9.281883212732987
      ],
      [
        "快速",
        -9.28208987677938
      ],
      [
        "起,",
        -9.28213000070595
      ],
      [
        "方案",
        -9.283311084676752
      ],
      [
        "求",
        -9.283396933830735
      ],
      [
        "贷款",
        -9.284285767157773
      ],
      [
        "一条",
        -9.285587347745992
      ],
      [
        "郭",
        -9.286125106172715
      ],
      [
        "意大利",
        -9.286638642315452
      ],
      [
        ",不过",
        -9.287869138198175
      ],
      [
        "丝",
        -9.288122574472226
      ],
      [
        "喜",
        -9.28826509251052
      ],
      [
        "曾经",
        -9.290322497106438
      ],
      [
        "突然",
        -9.291024577936744
      ],
      [
        ",因",
        -9.291231854796656
      ],
      [
        "佳",
        -9.292568070889184
      ],
      [
        "版本",
        -9.293531428799133
      ],
      [
        "董事长",
        -9.29372418042513
      ],
      [
        "父母",
        -9.29546754776441
      ],
      [
        "仍然",
        -9.296040229814972
      ],
      [
        "钟",
        -9.296074379387289
      ],
      [
        "昨天",
        -9.296422878014823
      ],
      [
        "推动",
        -9.297021743400691
      ],
      [
        "掉",
        -9.2977564529522
      ],
      [
        "职业",
        -9.298364649193791
      ],
      [
        "秦",
        -9.29859644761514
      ],
      [
        "演出",
        -9.298673867034465
      ],
      [
        "」,",
        -9.298809575579869
      ],
      [
        "透露,",
        -9.299341947013104
      ],
      [
        ",又",
        -9.299588156601958
      ],
      [
        ",如果",
        -9.299671207346233
      ],
      [
        "重大",
        -9.299808958643077
      ],
      [
        "aid.",
        -9.299976081906744
      ],
      [
        "商品",
        -9.30115903927316
      ],
      [
        "反应",
        -9.3023867534015
      ],
      [
        "ple",
        -9.30370314848729
      ],
      [
        "的是",
        -9.303738562995768
      ],
      [
        ",位于",
        -9.304944762579698
      ],
      [
        "类似",
        -9.305901001140166
      ],
      [
        "记录",
        -9.306205723048524
      ],
      [
        "is",
        -9.306216681480796
      ],
      [
        "速度",
        -9.306350231327707
      ],
      [
        "人士",
        -9.307745690762577
      ],
      [
        "道路",
        -9.310020005210406
      ],
      [
        "女儿",
        -9.310151214092476
      ],
      [
        "足",
        -9.310687645972315
      ],
      [
        "十分",
        -9.311056349578946
      ],
      [
        "确定",
        -9.31179548390123
      ],
      [
        "测试",
        -9.311938452995545
      ],
      [
        "投入",
        -9.312419201524882
      ],
      [
        "工作人员",
        -9.313057450890378
      ],
      [
        "一场",
        -9.314338922103437
      ],
      [
        "试",
        -9.314701691863332
      ],
      [
        "行政",
        -9.316289935270712
      ],
      [
        "多个",
        -9.317295115267656
      ],
      [
        "洞",
        -9.317328614022076
      ],
      [
        "通常",
        -9.3178322056555
      ],
      [
        "宽",
        -9.31955063590154
      ],
      [
        "哥",
        -9.320479346270089
      ],
      [
        "降低",
        -9.320643587964025
      ],
      [
        "结果",
        -9.321313391531543
      ],
      [
        "训练",
        -9.321332004086957
      ],
      [
        "需",
        -9.321470427345597
      ],
      [
        "27",
        -9.321540672447384
      ],
      [
        "port",
        -9.322446281694877
      ],
      [
        "90",
        -9.32269538715984
      ],
      [
        "完",
        -9.32273865259137
      ],
      [
        "每年",
        -9.32287320633735
      ],
      [
        "医疗",
        -9.3234242089365
      ],
      [
        "印",
        -9.325016894659454
      ],
      [
        "异",
        -9.325137980057711
      ],
      [
        "显示,",
        -9.325399734781586
      ],
      [
        "现",
        -9.325512850299663
      ],
      [
        "娱乐",
        -9.325631436988962
      ],
      [
        "航",
        -9.325958403759138
      ],
      [
        "职",
        -9.326763687788985
      ],
      [
        "公共",
        -9.326912548745222
      ],
      [
        "如此",
        -9.327951260432078
      ],
      [
        "之一,",
        -9.330514419050576
      ],
      [
        "密",
        -9.330743729904649
      ],
      [
        "规定",
        -9.331550030281416
      ],
      [
        "绿",
        -9.332047296863768
      ],
      [
        ",由于",
        -9.332697088381536
      ],
      [
        "服",
        -9.333928139755542
      ],
      [
        "植物",
        -9.334045306230786
      ],
      [
        ",并在",
        -9.335677253408733
      ],
      [
        "这样",
        -9.335776157772164
      ],
      [
        "程",
        -9.335995208806317
      ],
      [
        "加强",
        -9.336278347162306
      ],
      [
        "行动",
        -9.33700616503788
      ],
      [
        "云南",
        -9.33703573952121
      ],
      [
        "攻击",
        -9.337185527472842
      ],
      [
        "多次",
        -9.337841959624134
      ],
      [
        "堡",
        -9.33899223085616
      ],
      [
        "35",
        -9.339609022331109
      ],
      [
        "配",
        -9.340108255485562
      ],
      [
        "枪",
        -9.341098213477956
      ],
      [
        "加拿大",
        -9.341292221249304
      ],
      [
        "乱",
        -9.34245274095198
      ],
      [
        "明显",
        -9.342944082708527
      ],
      [
        "创",
        -9.343697711350512
      ],
      [
        "亮",
        -9.343750126226343
      ],
      [
        "排名",
        -9.343774178461995
      ],
      [
        "精",
        -9.34416749585704
      ],
      [
        "四川",
        -9.346241507670989
      ],
      [
        "▁G",
        -9.347082010768943
      ],
      [
        "除了",
        -9.34845816670654
      ],
      [
        "f",
        -9.349262156474389
      ],
      [
        "材料",
        -9.349914098371242
      ],
      [
        "I",
        -9.349999474527646
      ],
      [
        "展开",
        -9.35089719532964
      ],
      [
        "冲",
        -9.35128003188384
      ],
      [
        "以来,",
        -9.35184352788528
      ],
      [
        "腾讯",
        -9.352808728122422
      ],
      [
        "断",
        -9.352955400095512
      ],
      [
        "则是",
        -9.353118777802647
      ],
      [
        "‘",
        -9.35323151113242
      ],
      [
        "积极",
        -9.35364367394664
      ],
      [
        "负责人",
        -9.353799608932608
      ],
      [
        "小学",
        -9.35402331093187
      ],
      [
        "那些",
        -9.354171909631344
      ],
      [
        "泉",
        -9.355748426916886
      ],
      [
        "母亲",
        -9.356179765737838
      ],
      [
        "按照",
        -9.356183683712723
      ],
      [
        "等。",
        -9.356561551896096
      ],
      [
        "恢复",
        -9.356971674334288
      ],
      [
        "即将",
        -9.357174244559197
      ],
      [
        "r",
        -9.357326291134616
      ],
      [
        "邦",
        -9.357748985855183
      ],
      [
        "驻",
        -9.358048874434148
      ],
      [
        "ding",
        -9.358737414010514
      ],
      [
        "》的",
        -9.358871922192348
      ],
      [
        "造",
        -9.35887298555688
      ],
      [
        "保险",
        -9.358940502670544
      ],
      [
        "罪",
        -9.359047779174864
      ],
      [
        "今",
        -9.359485930817067
      ],
      [
        "游客",
        -9.359489692376124
      ],
      [
        "集中",
        -9.35952687150373
      ],
      [
        "冷",
        -9.360496677229058
      ],
      [
        "死亡",
        -9.36130863083575
      ],
      [
        "贸易",
        -9.361952449277254
      ],
      [
        "此次",
        -9.362022588028893
      ],
      [
        "农业",
        -9.362741204381647
      ],
      [
        "孔",
        -9.365141536665185
      ],
      [
        "望",
        -9.365175165101064
      ],
      [
        "同比增长",
        -9.366111032049822
      ],
      [
        ".\"",
        -9.366154296731724
      ],
      [
        "接近",
        -9.366493447377746
      ],
      [
        "河南",
        -9.366770840099171
      ],
      [
        "第四",
        -9.366957334583793
      ],
      [
        "199",
        -9.368298233299782
      ],
      [
        "军事",
        -9.368823618936384
      ],
      [
        "报道",
        -9.36900905300155
      ],
      [
        ":\n*",
        -9.36905625958513
      ],
      [
        "戴",
        -9.36923445993722
      ],
      [
        "设施",
        -9.369368229546348
      ],
      [
        "此前",
        -9.370057255579832
      ],
      [
        "找",
        -9.370772974514404
      ],
      [
        "税",
        -9.371055803216423
      ],
      [
        "秋",
        -9.3711359500516
      ],
      [
        "面积",
        -9.371140153867854
      ],
      [
        "。此外,",
        -9.37165675675618
      ],
      [
        "剧",
        -9.372402753713429
      ],
      [
        "▁do",
        -9.372623114707848
      ],
      [
        "st",
        -9.373198324859516
      ],
      [
        "洋",
        -9.374095787766958
      ],
      [
        "鸡",
        -9.37584276054906
      ],
      [
        "人。",
        -9.37588117674516
      ],
      [
        "架",
        -9.376327813814193
      ],
      [
        "三个",
        -9.376754935630006
      ],
      [
        "治疗",
        -9.377026424749108
      ],
      [
        "跑",
        -9.377060303450126
      ],
      [
        "语言",
        -9.37735485633698
      ],
      [
        "纸",
        -9.378288130117218
      ],
      [
        "ted",
        -9.378617187661334
      ],
      [
        "赛事",
        -9.378670816260565
      ],
      [
        "东北",
        -9.378840920678403
      ],
      [
        "倒",
        -9.37932504127816
      ],
      [
        "总统",
        -9.379922724152848
      ],
      [
        "有效",
        -9.381114568946638
      ],
      [
        "出口",
        -9.381185470376137
      ],
      [
        "在中国",
        -9.382834241536704
      ],
      [
        "统一",
        -9.383235309405142
      ],
      [
        "l",
        -9.38336115783664
      ],
      [
        "舰",
        -9.383556657911226
      ],
      [
        "高速",
        -9.384559875122534
      ],
      [
        "佐",
        -9.385150082730432
      ],
      [
        "之一",
        -9.385534868908444
      ],
      [
        "委",
        -9.386042250911192
      ],
      [
        "nt",
        -9.386171092772503
      ],
      [
        "精神",
        -9.38669645250374
      ],
      [
        "斯特",
        -9.387209457254556
      ],
      [
        "事故",
        -9.388374996633823
      ],
      [
        "然",
        -9.389096116675637
      ],
      [
        "致",
        -9.38913890401552
      ],
      [
        "办公室",
        -9.390843521510597
      ],
      [
        "宣传",
        -9.39098604425456
      ],
      [
        "街道",
        -9.391017149635555
      ],
      [
        "观众",
        -9.391795767018865
      ],
      [
        "找到",
        -9.393307197218386
      ],
      [
        "伤",
        -9.393787401161475
      ],
      [
        "▁E",
        -9.393957189483777
      ],
      [
        "人的",
        -9.394729022716731
      ],
      [
        "Z",
        -9.394772837297312
      ],
      [
        "(201",
        -9.394872262277604
      ],
      [
        "el",
        -9.395006634512514
      ],
      [
        "算",
        -9.395089919435856
      ],
      [
        "笔",
        -9.395826472014226
      ],
      [
        "纪",
        -9.396047373024732
      ],
      [
        "涉及",
        -9.39682647573799
      ],
      [
        "农村",
        -9.397420117190329
      ],
      [
        "了,",
        -9.399578682557332
      ],
      [
        ",甚至",
        -9.399957035302783
      ],
      [
        "w",
        -9.400692604049778
      ],
      [
        "并没有",
        -9.400773294501413
      ],
      [
        "彩",
        -9.40131120097915
      ],
      [
        "呈",
        -9.40132992768264
      ],
      [
        "都有",
        -9.40173348790803
      ],
      [
        "us",
        -9.402003479400188
      ],
      [
        "▁th",
        -9.40205873409297
      ],
      [
        "功",
        -9.402419494789196
      ],
      [
        "杭州",
        -9.402452409374147
      ],
      [
        "迅速",
        -9.4029777089251
      ],
      [
        "重庆",
        -9.403684382381666
      ],
      [
        "军队",
        -9.404111319789692
      ],
      [
        "考试",
        -9.404870958305716
      ],
      [
        "耶",
        -9.405140083487334
      ],
      [
        "阿里",
        -9.406358306759854
      ],
      [
        "ould",
        -9.4066127046357
      ],
      [
        "操作",
        -9.407600487499051
      ],
      [
        "范",
        -9.408012328471576
      ],
      [
        "原因",
        -9.408690716403166
      ],
      [
        "湖南",
        -9.408708835703356
      ],
      [
        "山东",
        -9.409228486421586
      ],
      [
        "俊",
        -9.409306948445549
      ],
      [
        "散",
        -9.4096866779772
      ],
      [
        "(200",
        -9.409708323343516
      ],
      [
        "大部分",
        -9.41088657798098
      ],
      [
        "引",
        -9.41095090805926
      ],
      [
        "扩大",
        -9.41113723846706
      ],
      [
        "仓",
        -9.411550210794235
      ],
      [
        "编",
        -9.41176094072058
      ],
      [
        "任务",
        -9.412558467073977
      ],
      [
        "ers",
        -9.413659886369071
      ],
      [
        "潮",
        -9.413753866653511
      ],
      [
        "距离",
        -9.414258482454688
      ],
      [
        "酸",
        -9.414526830511848
      ],
      [
        "冠",
        -9.414935029447935
      ],
      [
        "1.",
        -9.415389870937124
      ],
      [
        "课",
        -9.415889022386944
      ],
      [
        "汤",
        -9.416152243765827
      ],
      [
        "武汉",
        -9.417267202319367
      ],
      [
        "朋友",
        -9.41769666479194
      ],
      [
        "who",
        -9.417833719609048
      ],
      [
        "津",
        -9.418176524943409
      ],
      [
        "在美国",
        -9.418713243989387
      ],
      [
        ",然后",
        -9.418717826037511
      ],
      [
        "黄金",
        -9.419151247563208
      ],
      [
        "结合",
        -9.41971097224897
      ],
      [
        "众",
        -9.419763010126426
      ],
      [
        "侯",
        -9.419875807329229
      ],
      [
        "300",
        -9.4201900660344
      ],
      [
        "贤",
        -9.420603583116126
      ],
      [
        "形式",
        -9.420884523458566
      ],
      [
        "were",
        -9.421002862792797
      ],
      [
        "浙江",
        -9.423097534671482
      ],
      [
        "圆",
        -9.423865079399183
      ],
      [
        "11月",
        -9.424420377648614
      ],
      [
        "der",
        -9.42513647551681
      ],
      [
        "将会",
        -9.425595596461998
      ],
      [
        "海外",
        -9.42596313084352
      ],
      [
        "计",
        -9.426458415371398
      ],
      [
        "一样",
        -9.426592686884746
      ],
      [
        "减",
        -9.426839801897533
      ],
      [
        "h",
        -9.426900159285378
      ],
      [
        "拟",
        -9.427454286336555
      ],
      [
        "听",
        -9.427822460237378
      ],
      [
        "健",
        -9.430070997491882
      ],
      [
        "霍",
        -9.430705622798152
      ],
      [
        "。其",
        -9.430752076457264
      ],
      [
        "监督",
        -9.431789658109606
      ],
      [
        "毒",
        -9.431955150678538
      ],
      [
        "保障",
        -9.432400319066204
      ],
      [
        "这是",
        -9.432668791177065
      ],
      [
        "股票",
        -9.433659518616889
      ],
      [
        "征",
        -9.433764143235951
      ],
      [
        "娜",
        -9.43410577638254
      ],
      [
        "Y",
        -9.43459348845837
      ],
      [
        "弹",
        -9.435884991024
      ],
      [
        "10月",
        -9.43635210248625
      ],
      [
        ",使",
        -9.43642381748266
      ],
      [
        "才能",
        -9.437098860869805
      ],
      [
        "网上",
        -9.43786147439757
      ],
      [
        "司机",
        -9.43866908713965
      ],
      [
        "魏",
        -9.439026058236282
      ],
      [
        "曹",
        -9.439191710720811
      ],
      [
        "例",
        -9.43946241386892
      ],
      [
        "警察",
        -9.440086416892871
      ],
      [
        "宇",
        -9.441170590858194
      ],
      [
        "帝国",
        -9.441284233239491
      ],
      [
        "辉",
        -9.4438097546507
      ],
      [
        "数据显示",
        -9.444304559910334
      ],
      [
        "来说,",
        -9.444682263467952
      ],
      [
        "主义",
        -9.444683265150523
      ],
      [
        "相当",
        -9.445385600328295
      ],
      [
        "北京市",
        -9.445631355932814
      ],
      [
        "0年,",
        -9.445695961332955
      ],
      [
        "渠道",
        -9.445827123001342
      ],
      [
        "29",
        -9.446152943069668
      ],
      [
        "▁T",
        -9.44660701834268
      ],
      [
        "基础",
        -9.447238008730825
      ],
      [
        "取消",
        -9.44754872422141
      ],
      [
        "预期",
        -9.44785427619286
      ],
      [
        "影",
        -9.448415807629782
      ],
      [
        "双方",
        -9.4484690527852
      ],
      [
        "苏联",
        -9.449228637237434
      ],
      [
        "住房",
        -9.449905642544463
      ],
      [
        "传播",
        -9.450339063221277
      ],
      [
        "整",
        -9.450523401505478
      ],
      [
        "三年",
        -9.450593887602356
      ],
      [
        ",000",
        -9.451006767910552
      ],
      [
        "2018",
        -9.451099091543288
      ],
      [
        "▁P",
        -9.451354109912472
      ],
      [
        "左右",
        -9.451484265970793
      ],
      [
        "▁K",
        -9.45202020788478
      ],
      [
        "步",
        -9.453013227283968
      ],
      [
        "▁F",
        -9.453044045406315
      ],
      [
        "智能",
        -9.453257841859324
      ],
      [
        "以来",
        -9.45363371762728
      ],
      [
        "改为",
        -9.454503479905451
      ],
      [
        "ra",
        -9.455579058626135
      ],
      [
        "数字",
        -9.456117555494178
      ],
      [
        "预计",
        -9.456657188335257
      ],
      [
        ",却",
        -9.458570954619368
      ],
      [
        "速",
        -9.458622755892952
      ],
      [
        "变化",
        -9.459486233980986
      ],
      [
        "8年,",
        -9.459893873060665
      ],
      [
        "旗下",
        -9.461247816346557
      ],
      [
        "静",
        -9.461320814802184
      ],
      [
        "依",
        -9.461367422171552
      ],
      [
        "来到",
        -9.46146554355674
      ],
      [
        "创作",
        -9.4620098010299
      ],
      [
        "海军",
        -9.46267674814908
      ],
      [
        "z",
        -9.462718009889176
      ],
      [
        "’",
        -9.462989751437204
      ],
      [
        "突破",
        -9.46350469772108
      ],
      [
        "方法",
        -9.463659399205945
      ],
      [
        "生态",
        -9.464909796169358
      ],
      [
        ")和",
        -9.465203606594669
      ],
      [
        "飞行",
        -9.465319705399184
      ],
      [
        "实际",
        -9.466751736863024
      ],
      [
        "交流",
        -9.466845113854358
      ],
      [
        "基地",
        -9.4675112646048
      ],
      [
        "相对",
        -9.467516142595056
      ],
      [
        "比例",
        -9.467557003899662
      ],
      [
        "狗",
        -9.467749847400205
      ],
      [
        "回到",
        -9.467766431242875
      ],
      [
        "u",
        -9.467859728698825
      ],
      [
        "体系",
        -9.468123315830216
      ],
      [
        "韦",
        -9.46830825614336
      ],
      [
        "出台",
        -9.468317486022038
      ],
      [
        "业绩",
        -9.469180996398649
      ],
      [
        "ice",
        -9.469619204465044
      ],
      [
        "消息",
        -9.470104552054556
      ],
      [
        "12月",
        -9.471654027519168
      ],
      [
        "经常",
        -9.471975079509166
      ],
      [
        "乘客",
        -9.47306303815666
      ],
      [
        "仙",
        -9.4731202932321
      ],
      [
        "歌曲",
        -9.47353525974905
      ],
      [
        "宣",
        -9.473582251454946
      ],
      [
        "涨",
        -9.474537102466988
      ],
      [
        "停止",
        -9.475369011498298
      ],
      [
        "处于",
        -9.47553581521268
      ],
      [
        "知道",
        -9.475891686280008
      ],
      [
        "谈",
        -9.4760896368407
      ],
      [
        "其中",
        -9.476280810710994
      ],
      [
        "上涨",
        -9.47637411276482
      ],
      [
        "文学",
        -9.476558868321709
      ],
      [
        "辛",
        -9.476989209916889
      ],
      [
        "显示",
        -9.477730231815446
      ],
      [
        "发表",
        -9.47892647562056
      ],
      [
        "核心",
        -9.47893535592358
      ],
      [
        "成绩",
        -9.48015032279112
      ],
      [
        "独",
        -9.4817043528378
      ],
      [
        "的主要",
        -9.482020976849547
      ],
      [
        "将其",
        -9.48237116804466
      ],
      [
        "不到",
        -9.484346236834156
      ],
      [
        "每天",
        -9.484386985073222
      ],
      [
        "正常",
        -9.484489969968685
      ],
      [
        "只能",
        -9.484497173591585
      ],
      [
        "奈",
        -9.487059902065068
      ],
      [
        "高级",
        -9.488056519055243
      ],
      [
        "证监会",
        -9.48806172854284
      ],
      [
        "射",
        -9.48906308197896
      ],
      [
        "竞争",
        -9.489325397879774
      ],
      [
        "载",
        -9.4897034932707
      ],
      [
        "条件",
        -9.489800354690423
      ],
      [
        "结束",
        -9.489956474923504
      ],
      [
        "第",
        -9.490324721660077
      ],
      [
        "The",
        -9.490550573754522
      ],
      [
        "澳大利亚",
        -9.49159814353989
      ],
      [
        "频道",
        -9.492429645012685
      ],
      [
        "198",
        -9.493030133492471
      ],
      [
        "联邦",
        -9.49312525492566
      ],
      [
        "联系",
        -9.493378889769962
      ],
      [
        "组成",
        -9.493810226006936
      ],
      [
        "3年,",
        -9.4938369625343
      ],
      [
        "标",
        -9.493840277932666
      ],
      [
        "ce",
        -9.494194567041951
      ],
      [
        "群众",
        -9.49447158305639
      ],
      [
        "猫",
        -9.494545541327176
      ],
      [
        "钢",
        -9.495039472040435
      ],
      [
        "仪",
        -9.496031501630224
      ],
      [
        "两人",
        -9.496249832233202
      ],
      [
        "境内",
        -9.496779526836267
      ],
      [
        "历",
        -9.497648273880234
      ],
      [
        "摩",
        -9.49788617682374
      ],
      [
        "庙",
        -9.498710875147404
      ],
      [
        "拒绝",
        -9.499013779705177
      ],
      [
        "股东",
        -9.499749948131264
      ],
      [
        "压力",
        -9.49995515605104
      ],
      [
        "遭到",
        -9.500169488551462
      ],
      [
        "基于",
        -9.50030293579282
      ],
      [
        "公路",
        -9.500883708523748
      ],
      [
        "桑",
        -9.500934950303357
      ],
      [
        "外,",
        -9.500997057726542
      ],
      [
        "昨日,",
        -9.501582860531084
      ],
      [
        "及其",
        -9.501609191721505
      ],
      [
        "再度",
        -9.501850411329974
      ],
      [
        "父",
        -9.50186574553337
      ],
      [
        "南部",
        -9.502921132357306
      ],
      [
        "。199",
        -9.502975776218635
      ],
      [
        "▁go",
        -9.503274643684064
      ],
      [
        "身份",
        -9.503382590355931
      ],
      [
        "几乎",
        -9.50351488683217
      ],
      [
        "推广",
        -9.503660146648947
      ],
      [
        "检查",
        -9.50370347089432
      ],
      [
        "表演",
        -9.504263991651
      ],
      [
        "2000",
        -9.504495049496883
      ],
      [
        "纯",
        -9.505088001241884
      ],
      [
        "5年,",
        -9.505412009489946
      ],
      [
        "警",
        -9.505607293668216
      ],
      [
        ",这些",
        -9.506376578262609
      ],
      [
        "限制",
        -9.506445016016963
      ],
      [
        "至少",
        -9.507248511606402
      ],
      [
        "线路",
        -9.50809954260692
      ],
      [
        "块",
        -9.508150082938773
      ],
      [
        "盐",
        -9.508400761368804
      ],
      [
        "吕",
        -9.508405382984074
      ],
      [
        "满足",
        -9.508823436107336
      ],
      [
        "办理",
        -9.508826114480732
      ],
      [
        "供",
        -9.5090840411499
      ],
      [
        "巴西",
        -9.50928187255659
      ],
      [
        ",导致",
        -9.51129165036468
      ],
      [
        "勇",
        -9.511846122917357
      ],
      [
        "理论",
        -9.511909262324378
      ],
      [
        "引起",
        -9.512541072529828
      ],
      [
        "英格兰",
        -9.512609628964949
      ],
      [
        "消息,",
        -9.51341517892942
      ],
      [
        "采取",
        -9.51356257083069
      ],
      [
        "had",
        -9.514410443002204
      ],
      [
        "为“",
        -9.514484076826166
      ],
      [
        "的时候",
        -9.514708109770591
      ],
      [
        "小米",
        -9.51530440829518
      ],
      [
        "依然",
        -9.515306290761853
      ],
      [
        "置",
        -9.515338906495357
      ],
      [
        "专",
        -9.516956171802672
      ],
      [
        "追",
        -9.517126883245275
      ],
      [
        "▁O",
        -9.517583696162808
      ],
      [
        "众多",
        -9.517718080523723
      ],
      [
        "民族",
        -9.517966590996526
      ],
      [
        "阶段",
        -9.518344074148292
      ],
      [
        "是由",
        -9.518839545274178
      ],
      [
        "魔",
        -9.518908854096315
      ],
      [
        "兄弟",
        -9.519211546672636
      ],
      [
        ",诊股)",
        -9.51982077680548
      ],
      [
        ",于是",
        -9.520064085215216
      ],
      [
        "工厂",
        -9.520651088975464
      ],
      [
        "专辑",
        -9.520831182341183
      ],
      [
        "饰演",
        -9.520895013051357
      ],
      [
        "美元",
        -9.521414550174796
      ],
      [
        "末",
        -9.52207435737667
      ],
      [
        "面对",
        -9.522974288718718
      ],
      [
        "诸",
        -9.523118562346362
      ],
      [
        "人数",
        -9.523533378648654
      ],
      [
        "戈",
        -9.523617095096627
      ],
      [
        "跳",
        -9.5241390624596
      ],
      [
        "教师",
        -9.52433053045921
      ],
      [
        "孝",
        -9.524649859087427
      ],
      [
        "压",
        -9.5251296993684
      ],
      [
        "位置",
        -9.525675413581306
      ],
      [
        "是“",
        -9.526094424038371
      ],
      [
        "涉嫌",
        -9.52632988033843
      ],
      [
        "姓",
        -9.527090147183486
      ],
      [
        "都会",
        -9.528186761926134
      ],
      [
        "大道",
        -9.528331998383315
      ],
      [
        "流量",
        -9.529020083917422
      ],
      [
        "」。",
        -9.529393531232966
      ],
      [
        "佩",
        -9.530599015075634
      ],
      [
        "须",
        -9.530631010586111
      ],
      [
        "沃",
        -9.530977902274104
      ],
      [
        "』",
        -9.531064123328518
      ],
      [
        "因此",
        -9.531297108129356
      ],
      [
        "获得了",
        -9.531409429232507
      ],
      [
        "▁W",
        -9.53235577322584
      ],
      [
        "。其中",
        -9.532573833564497
      ],
      [
        "man",
        -9.532810971718206
      ],
      [
        "不要",
        -9.533012830017691
      ],
      [
        "身体",
        -9.533122706997093
      ],
      [
        "在北京",
        -9.53459182378835
      ],
      [
        "穿",
        -9.534604543019553
      ],
      [
        "家族",
        -9.534942958107278
      ],
      [
        "舞",
        -9.535538977921354
      ],
      [
        "略",
        -9.535719945021665
      ],
      [
        "东部",
        -9.535924046678543
      ],
      [
        "世纪",
        -9.53615323608945
      ],
      [
        "零",
        -9.536461822105778
      ],
      [
        "横",
        -9.536720261336187
      ],
      [
        "房价",
        -9.53697634799082
      ],
      [
        "燕",
        -9.537134238383825
      ],
      [
        "9年,",
        -9.537764180004078
      ],
      [
        "side",
        -9.538583415915667
      ],
      [
        "创始人",
        -9.53862493360296
      ],
      [
        "臣",
        -9.538773027578598
      ],
      [
        ",200",
        -9.539137470594945
      ],
      [
        "说:“",
        -9.53980255178362
      ],
      [
        "北部",
        -9.540013255305514
      ],
      [
        "作家",
        -9.54147741615929
      ],
      [
        "籍",
        -9.541856258276171
      ],
      [
        "额",
        -9.542593966018728
      ],
      [
        "▁In",
        -9.542594332495488
      ],
      [
        "觉得",
        -9.542902937138646
      ],
      [
        "32",
        -9.542967603504028
      ],
      [
        "停",
        -9.54354051757632
      ],
      [
        "2年,",
        -9.54380623281121
      ],
      [
        "。从",
        -9.544152610251732
      ],
      [
        "解释",
        -9.544509678788938
      ],
      [
        "45",
        -9.544978256548427
      ],
      [
        "糖",
        -9.5450181044356
      ],
      [
        "电脑",
        -9.546329515788855
      ],
      [
        "俄",
        -9.547292647161523
      ],
      [
        "▁her",
        -9.549671804661934
      ],
      [
        "举",
        -9.54993385496984
      ],
      [
        "待",
        -9.550621937693718
      ],
      [
        "2015",
        -9.550963465468037
      ],
      [
        "组合",
        -9.551415648547067
      ],
      [
        "下降",
        -9.551656791066923
      ],
      [
        "萧",
        -9.552357361065914
      ],
      [
        "7年,",
        -9.55246518683959
      ],
      [
        "持",
        -9.552662648323178
      ],
      [
        "等人",
        -9.5526739847207
      ],
      [
        "统计",
        -9.552684898022909
      ],
      [
        "it",
        -9.552979842889531
      ],
      [
        "榜",
        -9.553575459106732
      ],
      [
        "将军",
        -9.553641067985613
      ],
      [
        "池",
        -9.553702324531669
      ],
      [
        "脱",
        -9.55396432713728
      ],
      [
        "拜",
        -9.554174351780016
      ],
      [
        "。她",
        -9.554846485535824
      ],
      [
        "央行",
        -9.554913538970062
      ],
      [
        "优",
        -9.554985239001525
      ],
      [
        "笑",
        -9.555407206695186
      ],
      [
        "敏",
        -9.556176828693518
      ],
      [
        "患者",
        -9.556590201489238
      ],
      [
        "36",
        -9.556646284316528
      ],
      [
        "。如果",
        -9.556752378802296
      ],
      [
        "罗马",
        -9.5568156718447
      ],
      [
        "主题",
        -9.55686789782286
      ],
      [
        "灯",
        -9.557166980102112
      ],
      [
        "不可",
        -9.557367691723895
      ],
      [
        "▁199",
        -9.557745416233672
      ],
      [
        "1年,",
        -9.558823702050365
      ],
      [
        "普遍",
        -9.559062220284307
      ],
      [
        "错",
        -9.55913329620262
      ],
      [
        "严",
        -9.56134327003998
      ],
      [
        "劳",
        -9.561667843138304
      ],
      [
        "高速公路",
        -9.561992162331553
      ],
      [
        "运输",
        -9.562051959994257
      ],
      [
        "的新",
        -9.563297554538645
      ],
      [
        "4年,",
        -9.563596942338506
      ],
      [
        "(S",
        -9.563987681701557
      ],
      [
        "收费",
        -9.564381310991417
      ],
      [
        "改善",
        -9.56495618023029
      ],
      [
        "资料",
        -9.564992637319712
      ],
      [
        "天津",
        -9.565232189534346
      ],
      [
        "」(",
        -9.565365378901708
      ],
      [
        "挑战",
        -9.565369600022304
      ],
      [
        "→",
        -9.565398029206358
      ],
      [
        "干部",
        -9.566559317534164
      ],
      [
        "皆",
        -9.567200290862244
      ],
      [
        "太阳",
        -9.567566569556202
      ],
      [
        "地球",
        -9.56760023160772
      ],
      [
        "是在",
        -9.568218238535886
      ],
      [
        "▁you",
        -9.568360593958364
      ],
      [
        "证明",
        -9.568491703725543
      ],
      [
        "里,",
        -9.5689067500049
      ],
      [
        "完善",
        -9.56893125367178
      ],
      [
        "改造",
        -9.569183259905776
      ],
      [
        "乌克兰",
        -9.569183688761171
      ],
      [
        "小说",
        -9.56991117445114
      ],
      [
        "他们的",
        -9.570053311573815
      ],
      [
        "this",
        -9.570147225050498
      ],
      [
        "开通",
        -9.57083138947216
      ],
      [
        "6年,",
        -9.571041214792489
      ],
      [
        "机关",
        -9.5715293181493
      ],
      [
        "的重要",
        -9.57160783581568
      ],
      [
        "荷兰",
        -9.572285677534744
      ],
      [
        "乘",
        -9.572390256933351
      ],
      [
        "对方",
        -9.572695575957605
      ],
      [
        "不同的",
        -9.573003476283745
      ],
      [
        "照片",
        -9.573931623538387
      ],
      [
        "阿尔",
        -9.575260323205416
      ],
      [
        "讨论",
        -9.575478464628633
      ],
      [
        "费用",
        -9.575562757118467
      ],
      [
        "大会",
        -9.57584902570398
      ],
      [
        "虫",
        -9.576099820838124
      ],
      [
        "地产",
        -9.57637579079878
      ],
      [
        "背",
        -9.576408834742807
      ],
      [
        "引发",
        -9.578410480334108
      ],
      [
        "▁or",
        -9.57850211339174
      ],
      [
        "可能会",
        -9.578676203234792
      ],
      [
        "东方",
        -9.57900628298848
      ],
      [
        "IPO",
        -9.579053025459974
      ],
      [
        "中国大陆",
        -9.579545568448353
      ],
      [
        "。根据",
        -9.580031197664184
      ],
      [
        "并未",
        -9.580239770561851
      ],
      [
        "0年代",
        -9.58117528874985
      ],
      [
        "人才",
        -9.5812183659468
      ],
      [
        "苦",
        -9.581405131316895
      ],
      [
        "实行",
        -9.58148145048961
      ],
      [
        "了一个",
        -9.582288543643784
      ],
      [
        "后来",
        -9.582994791901031
      ],
      [
        "ic",
        -9.583611236665964
      ],
      [
        "计算",
        -9.583731265264111
      ],
      [
        "有些",
        -9.584656636663066
      ],
      [
        "ound",
        -9.584772318971227
      ],
      [
        "确认",
        -9.584807097183916
      ],
      [
        "大陆",
        -9.585043741338344
      ],
      [
        "过程",
        -9.58527576456705
      ],
      [
        "遭遇",
        -9.586402838893378
      ],
      [
        "寻找",
        -9.586441618091982
      ],
      [
        "包含",
        -9.586481622005188
      ],
      [
        "豪",
        -9.5866066399289
      ],
      [
        "尽",
        -9.58675682016742
      ],
      [
        "at",
        -9.588693999008376
      ],
      [
        "澳门",
        -9.58874732191582
      ],
      [
        "唱",
        -9.58906029986923
      ],
      [
        "升级",
        -9.5897495161547
      ],
      [
        "。”\n",
        -9.589757669868892
      ],
      [
        "于199",
        -9.590040360628718
      ],
      [
        "辆",
        -9.590826268870918
      ],
      [
        "纷纷",
        -9.590895154120064
      ],
      [
        "扬",
        -9.591059848435624
      ],
      [
        "西部",
        -9.591411189594156
      ],
      [
        "绝",
        -9.59184633675514
      ],
      [
        "晓",
        -9.591970167285092
      ],
      [
        "自动",
        -9.59239486318027
      ],
      [
        "ro",
        -9.592654710046803
      ],
      [
        "的是,",
        -9.592729345970554
      ],
      [
        "邀请",
        -9.592788020928191
      ],
      [
        "真正",
        -9.592931240136004
      ],
      [
        "帮",
        -9.59320911381812
      ],
      [
        "借",
        -9.593399258732592
      ],
      [
        "纽约",
        -9.593459498936344
      ],
      [
        "化学",
        -9.59356429748216
      ],
      [
        "舍",
        -9.59445711055514
      ],
      [
        "份",
        -9.594924315665152
      ],
      [
        "江苏",
        -9.594958680582833
      ],
      [
        "谁",
        -9.595068618149476
      ],
      [
        "贾",
        -9.59548601003745
      ],
      [
        "怎么",
        -9.595667429462084
      ],
      [
        "怀",
        -9.595947831178044
      ],
      [
        "决赛",
        -9.596702145151877
      ],
      [
        "终于",
        -9.596917065381842
      ],
      [
        "名称",
        -9.596995934102743
      ],
      [
        "明确",
        -9.598319162748156
      ],
      [
        "同样",
        -9.59862336651264
      ],
      [
        "介绍",
        -9.599189597658569
      ],
      [
        "冬",
        -9.599206056382682
      ],
      [
        "son",
        -9.59969676653224
      ],
      [
        "加盟",
        -9.60002934045492
      ],
      [
        "柳",
        -9.600074962663465
      ],
      [
        "麻",
        -9.600912053930816
      ],
      [
        "妻子",
        -9.60110785902354
      ],
      [
        "的时候,",
        -9.601439454362035
      ],
      [
        "贺",
        -9.601969576054822
      ],
      [
        "分享",
        -9.602279139560324
      ],
      [
        "折",
        -9.60276520461591
      ],
      [
        "明星",
        -9.602792943658516
      ],
      [
        ",现在",
        -9.603977999720186
      ],
      [
        "的方式",
        -9.604069987253734
      ],
      [
        "注册",
        -9.604851288555786
      ],
      [
        "有人",
        -9.604986453693718
      ],
      [
        "onal",
        -9.60546476721462
      ],
      [
        "试点",
        -9.606174865171065
      ],
      [
        "阴",
        -9.606738585217029
      ],
      [
        "民警",
        -9.607185775160785
      ],
      [
        "浦",
        -9.60724749964604
      ],
      [
        "财政",
        -9.607599395379705
      ],
      [
        "中华人民",
        -9.60872597415956
      ],
      [
        "坚持",
        -9.6090057286682
      ],
      [
        "阿里巴巴",
        -9.609006876522212
      ],
      [
        "▁e",
        -9.609655335439289
      ],
      [
        "味",
        -9.609802019232028
      ],
      [
        "主任",
        -9.609962808297958
      ],
      [
        "ent",
        -9.61029221310561
      ],
      [
        "抢",
        -9.610344116430555
      ],
      [
        "建成",
        -9.610475723263974
      ],
      [
        "给予",
        -9.61068854424595
      ],
      [
        "。虽然",
        -9.61070663529298
      ],
      [
        "工具",
        -9.610726747768728
      ],
      [
        "新增",
        -9.611214334784217
      ],
      [
        "当前",
        -9.612024039505505
      ],
      [
        "33",
        -9.612801246448551
      ],
      [
        "指导",
        -9.612908549928598
      ],
      [
        "熊",
        -9.61313935912245
      ],
      [
        "柱",
        -9.613889247279172
      ],
      [
        "不再",
        -9.614839774180288
      ],
      [
        "知名",
        -9.615667798307834
      ],
      [
        "西安",
        -9.615695762099186
      ],
      [
        "购物",
        -9.615699447765513
      ],
      [
        "演",
        -9.615729645107256
      ],
      [
        "扎",
        -9.615814380581282
      ],
      [
        "纪录",
        -9.616131635650788
      ],
      [
        "寿",
        -9.616337928050186
      ],
      [
        "实验",
        -9.6167569854623
      ],
      [
        "反对",
        -9.61701183386776
      ],
      [
        "就会",
        -9.617180622834944
      ],
      [
        "什",
        -9.617226179109146
      ],
      [
        "天气",
        -9.617787959947826
      ],
      [
        "救",
        -9.61819011137074
      ],
      [
        "。不过",
        -9.618331167733976
      ],
      [
        "指挥",
        -9.618731550849414
      ],
      [
        "覆盖",
        -9.619512954676534
      ],
      [
        "公众",
        -9.620038080678569
      ],
      [
        "济",
        -9.620068206766156
      ],
      [
        "东西",
        -9.620480599740668
      ],
      [
        "收到",
        -9.621320829119352
      ],
      [
        "她的",
        -9.621449908905053
      ],
      [
        "总理",
        -9.621473881070404
      ],
      [
        "面临",
        -9.62197558462407
      ],
      [
        "推荐",
        -9.622931541771983
      ],
      [
        "选举",
        -9.6235997573566
      ],
      [
        "不仅",
        -9.623904943184767
      ],
      [
        "规则",
        -9.624064678530129
      ],
      [
        "并非",
        -9.62422643661587
      ],
      [
        "高校",
        -9.624366363034868
      ],
      [
        "凤",
        -9.624594522289938
      ],
      [
        "来看,",
        -9.625134915735956
      ],
      [
        "缘",
        -9.62513897444514
      ],
      [
        "问题,",
        -9.625610643757955
      ],
      [
        ",最后",
        -9.62571400798993
      ],
      [
        "斗",
        -9.626130691164896
      ],
      [
        "稳定",
        -9.62634421881438
      ],
      [
        "柏",
        -9.62658131996468
      ],
      [
        "私",
        -9.62695747224292
      ],
      [
        "施工",
        -9.627763228759074
      ],
      [
        "蔡",
        -9.628213775522426
      ],
      [
        "不足",
        -9.628500081028417
      ],
      [
        "主持",
        -9.62852889381712
      ],
      [
        "败",
        -9.629118514639089
      ],
      [
        "协议",
        -9.629835932100235
      ],
      [
        "注",
        -9.630583900087483
      ],
      [
        "机制",
        -9.631193097213878
      ],
      [
        "CEO",
        -9.632028151880885
      ],
      [
        "令人",
        -9.632285234454512
      ],
      [
        "500",
        -9.632581076594969
      ],
      [
        "▁D",
        -9.63266512300125
      ],
      [
        "同意",
        -9.633211770610352
      ],
      [
        "。当",
        -9.633490867786882
      ],
      [
        "先后",
        -9.63356639646241
      ],
      [
        "东京",
        -9.633637126016996
      ],
      [
        "英语",
        -9.63371674088801
      ],
      [
        "感到",
        -9.633760512418029
      ],
      [
        "市镇",
        -9.63390845049824
      ],
      [
        "称为",
        -9.634636486708136
      ],
      [
        "Q",
        -9.634676240869918
      ],
      [
        "bout",
        -9.634834416305212
      ],
      [
        "百度",
        -9.635098499835255
      ],
      [
        "措施",
        -9.635099892457797
      ],
      [
        "评论",
        -9.635935126559705
      ],
      [
        "篇",
        -9.636129529176785
      ],
      [
        "穆",
        -9.636353989505842
      ],
      [
        "祥",
        -9.63687627674335
      ],
      [
        "秒",
        -9.637337996339706
      ],
      [
        "提前",
        -9.637405246892763
      ],
      [
        "偏",
        -9.638397181236533
      ],
      [
        ",再",
        -9.63869782047097
      ],
      [
        "成了",
        -9.638791187393563
      ],
      [
        "促进",
        -9.639138161314303
      ],
      [
        "马来西亚",
        -9.639223083701168
      ],
      [
        "脑",
        -9.639544107576024
      ],
      [
        "批准",
        -9.639851261800215
      ],
      [
        "显",
        -9.640369572198088
      ],
      [
        "规范",
        -9.641587766188136
      ],
      [
        "难以",
        -9.64199178006411
      ],
      [
        "乔",
        -9.642432802410362
      ],
      [
        "x",
        -9.643327599293448
      ],
      [
        "倍",
        -9.64343148612285
      ],
      [
        "利益",
        -9.643604082557738
      ],
      [
        "最低",
        -9.644589782614837
      ],
      [
        ",可以",
        -9.644797317542816
      ],
      [
        "电视剧",
        -9.64509331292164
      ],
      [
        "will",
        -9.645558008215582
      ],
      [
        "A股",
        -9.645963482224593
      ],
      [
        "作出",
        -9.646388679828672
      ],
      [
        "股价",
        -9.646968289527134
      ],
      [
        "击",
        -9.647692145634553
      ],
      [
        "程序",
        -9.648535747317649
      ],
      [
        ",不",
        -9.648949809342248
      ],
      [
        "坑",
        -9.649134620004748
      ],
      [
        "文件",
        -9.649166508437954
      ],
      [
        "跌",
        -9.649402880838736
      ],
      [
        ",更",
        -9.649864871857556
      ],
      [
        "殿",
        -9.649901673270568
      ],
      [
        "潘",
        -9.650352685375193
      ],
      [
        "进口",
        -9.650477977505982
      ],
      [
        "从事",
        -9.65087540884891
      ],
      [
        "甘",
        -9.651104516854543
      ],
      [
        "。它",
        -9.651114413020483
      ],
      [
        "动画",
        -9.651526113498496
      ],
      [
        "板块",
        -9.651709494012316
      ],
      [
        "一世",
        -9.652538441142342
      ],
      [
        "鬼",
        -9.653809973401032
      ],
      [
        "地震",
        -9.655072702482949
      ],
      [
        "\n202",
        -9.655138001321378
      ],
      [
        "选手",
        -9.65526590810832
      ],
      [
        "绿色",
        -9.655428970453444
      ],
      [
        "评价",
        -9.656137492030393
      ],
      [
        "博士",
        -9.656225185117924
      ],
      [
        "。这些",
        -9.657302500588182
      ],
      [
        "纪念",
        -9.65833877204855
      ],
      [
        "过程中",
        -9.6590267634334
      ],
      [
        "变成",
        -9.659242124898434
      ],
      [
        "发现,",
        -9.660833612672551
      ],
      [
        "冈",
        -9.660855611667362
      ],
      [
        "茨",
        -9.661233394560137
      ],
      [
        "获悉,",
        -9.661907774457925
      ],
      [
        "敬",
        -9.66209866381602
      ],
      [
        "戏",
        -9.662678469958328
      ],
      [
        "炮",
        -9.663676615914852
      ],
      [
        "承",
        -9.663811103706651
      ],
      [
        "犯",
        -9.66394571209597
      ],
      [
        "羽",
        -9.664139598608728
      ],
      [
        "。目前,",
        -9.664308625001487
      ],
      [
        "宏",
        -9.664643867091424
      ],
      [
        "▁but",
        -9.66569053815106
      ],
      [
        "芳",
        -9.666092141028864
      ],
      [
        "的小",
        -9.666547722258311
      ],
      [
        "ar",
        -9.66704440487718
      ],
      [
        "ia",
        -9.667260194439978
      ],
      [
        "下午",
        -9.667322786426467
      ],
      [
        "各地",
        -9.668235424987564
      ],
      [
        "概念",
        -9.669300882515362
      ],
      [
        "伦敦",
        -9.66987763974034
      ],
      [
        "沈",
        -9.66988363495613
      ],
      [
        "料",
        -9.670027069439564
      ],
      [
        "风格",
        -9.670237193233062
      ],
      [
        "最新",
        -9.670430748591224
      ],
      [
        "郎",
        -9.670466415509567
      ],
      [
        "在线",
        -9.670724339958246
      ],
      [
        "乙",
        -9.670833641897662
      ],
      [
        "作者",
        -9.671435931376008
      ],
      [
        "休",
        -9.67208194002196
      ],
      [
        "律师",
        -9.673381078536227
      ],
      [
        "工资",
        -9.673439577607352
      ],
      [
        "维持",
        -9.673482906883702
      ],
      [
        "15日",
        -9.674396627276966
      ],
      [
        "新加坡",
        -9.674468607108423
      ],
      [
        "击败",
        -9.674764925810624
      ],
      [
        "路线",
        -9.67596446297484
      ],
      [
        "陵",
        -9.676532943325313
      ],
      [
        "艺",
        -9.676722628684278
      ],
      [
        "两名",
        -9.676898212962012
      ],
      [
        "吸引",
        -9.677023661404554
      ],
      [
        "意外",
        -9.67777015337784
      ],
      [
        "早期",
        -9.677879401433133
      ],
      [
        "出生",
        -9.677917880792998
      ],
      [
        "能源",
        -9.678101312891927
      ],
      [
        "经历",
        -9.678234072158062
      ],
      [
        "十二",
        -9.678822839723882
      ],
      [
        "ス",
        -9.679170475194264
      ],
      [
        "召开",
        -9.67940243581052
      ],
      [
        "课程",
        -9.679550338626514
      ],
      [
        "似乎",
        -9.680173193583837
      ],
      [
        "一定",
        -9.68028952249514
      ],
      [
        "少年",
        -9.68037710939173
      ],
      [
        ",通过",
        -9.680484146925632
      ],
      [
        "构成",
        -9.680898492070543
      ],
      [
        "箱",
        -9.68091785377284
      ],
      [
        "武器",
        -9.6809715317801
      ],
      [
        "简",
        -9.681071849830994
      ],
      [
        "冯",
        -9.68114117121802
      ],
      [
        "状况",
        -9.68151934661983
      ],
      [
        "第五",
        -9.68223913712878
      ],
      [
        "脸",
        -9.682859635677374
      ],
      [
        "转型",
        -9.6831739991082
      ],
      [
        "负",
        -9.683225342817137
      ],
      [
        "ence",
        -9.683245556710943
      ],
      [
        "▁饰演",
        -9.683277425441338
      ],
      [
        "打造",
        -9.683555918443608
      ],
      [
        "结婚",
        -9.683959088632948
      ],
      [
        "羊",
        -9.684137844191586
      ],
      [
        "旗",
        -9.684290785251685
      ],
      [
        "童",
        -9.684565401149808
      ],
      [
        "『",
        -9.684699824982404
      ],
      [
        "医",
        -9.684829596223356
      ],
      [
        "访问",
        -9.685243901545658
      ],
      [
        "ions",
        -9.68530575328473
      ],
      [
        "31",
        -9.685421623376463
      ],
      [
        "福建",
        -9.685430376839465
      ],
      [
        "教练",
        -9.685523922273832
      ],
      [
        "影片",
        -9.685629453580816
      ],
      [
        "毕业",
        -9.686494257097475
      ],
      [
        "说明",
        -9.688288902273069
      ],
      [
        "女孩",
        -9.688717528981284
      ],
      [
        "现金",
        -9.688774976148364
      ],
      [
        "▁she",
        -9.68932805623241
      ],
      [
        "超级",
        -9.6894788305825
      ],
      [
        "未能",
        -9.689833138662625
      ],
      [
        "彭",
        -9.68988347896448
      ],
      [
        "主动",
        -9.689896380201676
      ],
      [
        "琴",
        -9.6899087039759
      ],
      [
        "含",
        -9.690105379215224
      ],
      [
        "痛",
        -9.690855214873409
      ],
      [
        "你的",
        -9.691116646557996
      ],
      [
        "西南",
        -9.691497909405586
      ],
      [
        "楚",
        -9.691530285536995
      ],
      [
        "fter",
        -9.691677277463086
      ],
      [
        "希腊",
        -9.692782637487229
      ],
      [
        "ard",
        -9.692785913448246
      ],
      [
        "。他们",
        -9.692807194795495
      ],
      [
        "信号",
        -9.6928549974729
      ],
      [
        "。这是",
        -9.693205407970458
      ],
      [
        "有所",
        -9.693324290118634
      ],
      [
        "它们",
        -9.69340495890973
      ],
      [
        ",例如",
        -9.69342725604179
      ],
      [
        "歌手",
        -9.694154418862205
      ],
      [
        "资格",
        -9.694527728184443
      ],
      [
        "卫生",
        -9.694583974689715
      ],
      [
        "学者",
        -9.69503118932976
      ],
      [
        "!”",
        -9.695649304590088
      ],
      [
        "as",
        -9.697374801055105
      ],
      [
        "通信",
        -9.697450677805527
      ],
      [
        "民众",
        -9.697596686048932
      ],
      [
        "皇",
        -9.697620758556717
      ],
      [
        "展示",
        -9.69784570513237
      ],
      [
        "也会",
        -9.697918472027226
      ],
      [
        "物流",
        -9.698214819465967
      ],
      [
        "搜索",
        -9.69843603426182
      ],
      [
        "有望",
        -9.69858398454062
      ],
      [
        "洲",
        -9.698601621758424
      ],
      [
        "耳",
        -9.699330197537243
      ],
      [
        "合同",
        -9.699357241387125
      ],
      [
        "越来越",
        -9.69964926343392
      ],
      [
        "容",
        -9.69965876816456
      ],
      [
        "席",
        -9.699814093696322
      ],
      [
        "越南",
        -9.70008389892047
      ],
      [
        "蛇",
        -9.700619292045488
      ],
      [
        "广西",
        -9.70091266531261
      ],
      [
        "对此",
        -9.700962012981671
      ],
      [
        "西北",
        -9.70229015342129
      ],
      [
        "禁",
        -9.70275270982734
      ],
      [
        "剂",
        -9.703016806700443
      ],
      [
        "布局",
        -9.70328036395662
      ],
      [
        "教堂",
        -9.703396377744888
      ],
      [
        "女士",
        -9.70343627936473
      ],
      [
        "皇帝",
        -9.704058888982091
      ],
      [
        "监",
        -9.704088498102047
      ],
      [
        "浩",
        -9.705314750587805
      ],
      [
        "成长",
        -9.705524478101768
      ],
      [
        "ri",
        -9.70554380009538
      ],
      [
        "跨",
        -9.705759265933011
      ],
      [
        "轨道",
        -9.706007722746897
      ],
      [
        "37",
        -9.706125497646324
      ],
      [
        "第一个",
        -9.70631143699686
      ],
      [
        "1000",
        -9.706481464242415
      ],
      [
        "202",
        -9.70689472783079
      ],
      [
        "检测",
        -9.707233017618275
      ],
      [
        "回家",
        -9.707465560705986
      ],
      [
        "团体",
        -9.70757075261572
      ],
      [
        "京东",
        -9.707705250464134
      ],
      [
        "红色",
        -9.70778547270589
      ],
      [
        "喝",
        -9.707794151045883
      ],
      [
        "二世",
        -9.708111097637296
      ],
      [
        "饭",
        -9.708575579734932
      ],
      [
        "必",
        -9.709246404071438
      ],
      [
        "co",
        -9.709406206033758
      ],
      [
        "旅",
        -9.70943335829773
      ],
      [
        "世界杯",
        -9.710141717738969
      ],
      [
        "是一种",
        -9.71015308908036
      ],
      [
        "也在",
        -9.710254744829966
      ],
      [
        "临时",
        -9.710462030233971
      ],
      [
        "非法",
        -9.710893848558875
      ],
      [
        "五年",
        -9.7109489842807
      ],
      [
        "旅客",
        -9.710987524086114
      ],
      [
        "一座",
        -9.71105735774381
      ],
      [
        "研究所",
        -9.71121108068063
      ],
      [
        "专门",
        -9.71150057255482
      ],
      [
        "发出",
        -9.711512264511867
      ],
      [
        "地下",
        -9.7116998394068
      ],
      [
        "一份",
        -9.711861268110484
      ],
      [
        "通道",
        -9.712045895384772
      ],
      [
        "凡",
        -9.712180368285038
      ],
      [
        "创造",
        -9.712279239119148
      ],
      [
        "上述",
        -9.712542552482246
      ],
      [
        "医学",
        -9.712932770020757
      ],
      [
        "符合",
        -9.71300241021562
      ],
      [
        ",美国",
        -9.713030313649297
      ],
      [
        "分为",
        -9.713159422043496
      ],
      [
        "房屋",
        -9.713376268241166
      ],
      [
        "翼",
        -9.713480993195873
      ],
      [
        "。据悉,",
        -9.713616125791802
      ],
      [
        "一辆",
        -9.713879545385456
      ],
      [
        "效果",
        -9.714049274700027
      ],
      [
        "〉",
        -9.714095997810682
      ],
      [
        "其实",
        -9.714150186671556
      ],
      [
        "首都",
        -9.714301002562022
      ],
      [
        "缺乏",
        -9.714992606253237
      ],
      [
        "题",
        -9.71541972661364
      ],
      [
        "〈",
        -9.715727984126028
      ],
      [
        "老板",
        -9.715850409830692
      ],
      [
        "家长",
        -9.71588116350894
      ],
      [
        "赤",
        -9.716110820213324
      ],
      [
        "(今",
        -9.716130279539032
      ],
      [
        "分类",
        -9.716466547062517
      ],
      [
        "▁whi",
        -9.716648650838469
      ],
      [
        "20日",
        -9.716669104658289
      ],
      [
        "妈妈",
        -9.716860405490475
      ],
      [
        "抗",
        -9.717074237785631
      ],
      [
        "具体",
        -9.717233874854452
      ],
      [
        "是个",
        -9.717335738775358
      ],
      [
        "'",
        -9.717485224948238
      ],
      [
        "做出",
        -9.718246638177243
      ],
      [
        "汇",
        -9.718614608898806
      ],
      [
        "金额",
        -9.718999863353613
      ],
      [
        "累计",
        -9.719375242439336
      ],
      [
        "护",
        -9.7201692134907
      ],
      [
        "投票",
        -9.720229005149
      ],
      [
        "小区",
        -9.720554846090428
      ],
      [
        "振",
        -9.720818235359474
      ],
      [
        "培训",
        -9.72117326066556
      ],
      [
        "微软",
        -9.721332589031013
      ],
      [
        "男性",
        -9.721542007913705
      ],
      [
        "日前,",
        -9.722359453438976
      ],
      [
        "尚未",
        -9.722709632897848
      ],
      [
        "30日",
        -9.722982393910325
      ],
      [
        "合并",
        -9.722983252319612
      ],
      [
        "特征",
        -9.723702207128053
      ],
      [
        "38",
        -9.723906483389516
      ],
      [
        "持有",
        -9.724282347369073
      ],
      [
        ",虽然",
        -9.724489987735383
      ],
      [
        "邓",
        -9.724507159853395
      ],
      [
        ",主要",
        -9.724672866597476
      ],
      [
        "山西",
        -9.724787819096042
      ],
      [
        "起来",
        -9.725923835823536
      ],
      [
        "御",
        -9.725992994991511
      ],
      [
        "锡",
        -9.726005315373223
      ],
      [
        "住宅",
        -9.726176312611358
      ],
      [
        "污染",
        -9.726512695689246
      ],
      [
        "珠",
        -9.726795960941638
      ],
      [
        "退出",
        -9.726935978258934
      ],
      [
        "il",
        -9.727610827085703
      ],
      [
        "▁out",
        -9.727820642416727
      ],
      [
        "研发",
        -9.728198999072935
      ],
      [
        "备",
        -9.728434622079911
      ],
      [
        "▁we",
        -9.729460644228592
      ],
      [
        "猪",
        -9.729646381352708
      ],
      [
        "ma",
        -9.730276185042031
      ],
      [
        "到达",
        -9.730591219741012
      ],
      [
        "航班",
        -9.731208176210288
      ],
      [
        "。但是",
        -9.73172935539114
      ],
      [
        "一部",
        -9.731910812818704
      ],
      [
        "▁p",
        -9.73329971404381
      ],
      [
        "▁cou",
        -9.733570856405386
      ],
      [
        "描述",
        -9.7337514014184
      ],
      [
        "就业",
        -9.73408785547281
      ],
      [
        "。然而,",
        -9.734532480161995
      ],
      [
        "55",
        -9.734912990454648
      ],
      [
        "生命",
        -9.735115209731813
      ],
      [
        "藤",
        -9.735715346581712
      ],
      [
        "评",
        -9.735969583905346
      ],
      [
        "over",
        -9.73620627403334
      ],
      [
        ",后",
        -9.736380881462388
      ],
      [
        "de",
        -9.736507866087358
      ],
      [
        "四个",
        -9.736736744231584
      ],
      [
        "漫画",
        -9.737696289186806
      ],
      [
        "病毒",
        -9.737827005810152
      ],
      [
        ",故",
        -9.738008819402404
      ],
      [
        "当天",
        -9.738173422471355
      ],
      [
        "一只",
        -9.738423952137005
      ],
      [
        "急",
        -9.738686203445669
      ],
      [
        "利润",
        -9.738917775306255
      ],
      [
        "粉",
        -9.73905239871774
      ],
      [
        "et",
        -9.739552349626598
      ],
      [
        "28日",
        -9.739584597022052
      ],
      [
        "第二次",
        -9.740716496066955
      ],
      [
        "lo",
        -9.741007707868372
      ],
      [
        "革命",
        -9.741239307573132
      ],
      [
        "侧",
        -9.741884545049102
      ],
      [
        "发射",
        -9.742120655471467
      ],
      [
        "论坛",
        -9.742651880159343
      ],
      [
        "n't",
        -9.743133733927502
      ],
      [
        "事务",
        -9.743153389075262
      ],
      [
        "犯罪",
        -9.743218099386842
      ],
      [
        "▁se",
        -9.744685882900518
      ],
      [
        "か",
        -9.744689521520057
      ],
      [
        ":《",
        -9.744694994135868
      ],
      [
        "巨",
        -9.744982535720624
      ],
      [
        "ting",
        -9.745388182022715
      ],
      [
        "▁un",
        -9.745464697396658
      ],
      [
        "莉",
        -9.746265176824378
      ],
      [
        "to",
        -9.746277316823768
      ],
      [
        "禁止",
        -9.746698321600112
      ],
      [
        "采",
        -9.746730571138192
      ],
      [
        "赴",
        -9.746757960791232
      ],
      [
        "打击",
        -9.746953441342775
      ],
      [
        "作用",
        -9.747335176397806
      ],
      [
        "巴黎",
        -9.74767927456388
      ],
      [
        "鹿",
        -9.747738135203347
      ],
      [
        "有一个",
        -9.748078191115496
      ],
      [
        "下跌",
        -9.74853491416539
      ],
      [
        "指标",
        -9.748658467074543
      ],
      [
        ",从而",
        -9.74923636117502
      ],
      [
        "人民法院",
        -9.74942584918274
      ],
      [
        ",预计",
        -9.751146741865776
      ],
      [
        "厚",
        -9.751503203548396
      ],
      [
        "利率",
        -9.751949622018518
      ],
      [
        "洗",
        -9.75209621002035
      ],
      [
        "」的",
        -9.752149391383712
      ],
      [
        "la",
        -9.752608408802969
      ],
      [
        ",当",
        -9.75291655828276
      ],
      [
        "。其中,",
        -9.753364235299305
      ],
      [
        "陕西",
        -9.75338514607638
      ],
      [
        "18日",
        -9.75361558115346
      ],
      [
        "都在",
        -9.753956317877485
      ],
      [
        "出任",
        -9.75408050292554
      ],
      [
        "公交",
        -9.754722950435749
      ],
      [
        "长沙",
        -9.754798639555204
      ],
      [
        "围",
        -9.75504228792913
      ],
      [
        "特殊",
        -9.755276433272329
      ],
      [
        "运动员",
        -9.755295721764014
      ],
      [
        "一下",
        -9.755622473464747
      ],
      [
        "暗",
        -9.755802020028383
      ],
      [
        ",还有",
        -9.756158687116448
      ],
      [
        "沟",
        -9.756416280187054
      ],
      [
        "股权",
        -9.756493617417537
      ],
      [
        "34",
        -9.756890099678536
      ],
      [
        "承认",
        -9.757187933892734
      ],
      [
        "▁He",
        -9.757330329645058
      ],
      [
        "集体",
        -9.758026735218348
      ],
      [
        "铜",
        -9.758517423631517
      ],
      [
        "大数据",
        -9.758713823227025
      ],
      [
        "硬",
        -9.75934779070336
      ],
      [
        "关键",
        -9.75951714080626
      ],
      [
        "露",
        -9.759640685312595
      ],
      [
        "默",
        -9.759658410974849
      ],
      [
        "land",
        -9.760142198201272
      ],
      [
        ",今年",
        -9.760797589301148
      ],
      [
        "建造",
        -9.76115095873424
      ],
      [
        "仔",
        -9.761582020963385
      ],
      [
        "48",
        -9.762100621464654
      ],
      [
        "还在",
        -9.762734104524766
      ],
      [
        "出现了",
        -9.763379806128173
      ],
      [
        "移民",
        -9.763649210149
      ],
      [
        "婚",
        -9.765114017512074
      ],
      [
        "导",
        -9.765158496592491
      ],
      [
        "及时",
        -9.765315825988315
      ],
      [
        "方面,",
        -9.765594008487144
      ],
      [
        "程度",
        -9.767364103454236
      ],
      [
        "努力",
        -9.767371260900436
      ],
      [
        "至今",
        -9.767566439908531
      ],
      [
        "高达",
        -9.767723067025964
      ],
      [
        "出售",
        -9.767724232707472
      ],
      [
        "聚",
        -9.767912176840998
      ],
      [
        ",后来",
        -9.768134631660349
      ],
      [
        "烧",
        -9.768610482550118
      ],
      [
        "▁di",
        -9.768956058383818
      ],
      [
        "尊",
        -9.769608867325626
      ],
      [
        "ta",
        -9.76974316586682
      ],
      [
        "。198",
        -9.770107246800926
      ],
      [
        "力量",
        -9.770120982990193
      ],
      [
        "署",
        -9.770314793260544
      ],
      [
        "大众",
        -9.770762700613291
      ],
      [
        "”。\n",
        -9.770958195179611
      ],
      [
        "优势",
        -9.77122125372048
      ],
      [
        "想要",
        -9.77125646974893
      ],
      [
        "欲",
        -9.771359970495777
      ],
      [
        "▁fa",
        -9.77142721119281
      ],
      [
        "已有",
        -9.77169872561511
      ],
      [
        "名单",
        -9.772298067891468
      ],
      [
        "战斗",
        -9.77245107506119
      ],
      [
        "翻",
        -9.772843007950062
      ],
      [
        "赔偿",
        -9.772982827764302
      ],
      [
        "烟",
        -9.773383003606272
      ],
      [
        "25日",
        -9.773841394838934
      ],
      [
        "多家",
        -9.77391935223962
      ],
      [
        "赖",
        -9.774433490864428
      ],
      [
        "尤",
        -9.775851595265104
      ],
      [
        "昆明",
        -9.776028993279052
      ],
      [
        "象",
        -9.776317483600202
      ],
      [
        "疾病",
        -9.776391553493571
      ],
      [
        "公主",
        -9.777353248249977
      ],
      [
        "尝试",
        -9.777363322116145
      ],
      [
        "透露",
        -9.77754034564045
      ],
      [
        "央视",
        -9.778094682144102
      ],
      [
        "手术",
        -9.77882362120044
      ],
      [
        "197",
        -9.778825874801498
      ],
      [
        "危机",
        -9.779413815193438
      ],
      [
        "担心",
        -9.77981333288088
      ],
      [
        "攻",
        -9.781014789875568
      ],
      [
        "紫",
        -9.78101820183877
      ],
      [
        "高考",
        -9.781087862878538
      ],
      [
        "破坏",
        -9.781517385007064
      ],
      [
        "一天",
        -9.78163087412507
      ],
      [
        "治理",
        -9.781665994277953
      ],
      [
        "195",
        -9.781695009618604
      ],
      [
        "财",
        -9.782389914962431
      ],
      [
        "▁b",
        -9.782941836444277
      ],
      [
        "术",
        -9.78328682903481
      ],
      [
        "作战",
        -9.784177223620103
      ],
      [
        "轴",
        -9.784353592733016
      ],
      [
        "细",
        -9.784508263267012
      ],
      [
        "广东省",
        -9.784640777804045
      ],
      [
        "益",
        -9.785243720192048
      ],
      [
        "批评",
        -9.78548827215563
      ],
      [
        "10日",
        -9.78568432608105
      ],
      [
        "ie",
        -9.78590359653387
      ],
      [
        "菌",
        -9.786343880686138
      ],
      [
        "一款",
        -9.786400539013842
      ],
      [
        "机械",
        -9.786619191058572
      ],
      [
        "后的",
        -9.786804882574891
      ],
      [
        "每个",
        -9.787238542423834
      ],
      [
        "故",
        -9.78736925640315
      ],
      [
        "关闭",
        -9.788537234123314
      ],
      [
        "简单",
        -9.788968775358336
      ],
      [
        "环保",
        -9.789082824714628
      ],
      [
        "事业",
        -9.789590973496871
      ],
      [
        "动力",
        -9.789835158402894
      ],
      [
        "登记",
        -9.789929289121408
      ],
      [
        "大约",
        -9.790186181774637
      ],
      [
        "市区",
        -9.79019548524597
      ],
      [
        "观察",
        -9.790215610201226
      ],
      [
        ",每",
        -9.790845166850026
      ],
      [
        "净",
        -9.791881794464752
      ],
      [
        "26日",
        -9.792111401699852
      ],
      [
        "ist",
        -9.79232662454823
      ],
      [
        "和平",
        -9.792395763378671
      ],
      [
        "责任",
        -9.793509886550948
      ],
      [
        "申",
        -9.793559873712397
      ],
      [
        "助",
        -9.79370282996975
      ],
      [
        "16日",
        -9.793968747499964
      ],
      [
        "恒",
        -9.794196953863835
      ],
      [
        "高中",
        -9.794206611399453
      ],
      [
        "白色",
        -9.794637423269048
      ],
      [
        "孟",
        -9.795101737073107
      ],
      [
        "放弃",
        -9.79536996343387
      ],
      [
        "饰",
        -9.795649497499769
      ],
      [
        "出现在",
        -9.796369211104745
      ],
      [
        "其它",
        -9.796598098632174
      ],
      [
        "高度",
        -9.79666042000022
      ],
      [
        "黑色",
        -9.797027107730882
      ],
      [
        "岭",
        -9.797635675333275
      ],
      [
        "效率",
        -9.798329894126066
      ],
      [
        "一张",
        -9.798344776988571
      ],
      [
        "城区",
        -9.798450252414447
      ],
      [
        "泰国",
        -9.799206071363592
      ],
      [
        "特色",
        -9.799431644487312
      ],
      [
        ",当时",
        -9.799462550778667
      ],
      [
        "补贴",
        -9.79965455296668
      ],
      [
        "战役",
        -9.80002343442431
      ],
      [
        "共有",
        -9.800123954534282
      ],
      [
        "地点",
        -9.8003580146341
      ],
      [
        "优秀",
        -9.800641780898262
      ],
      [
        "业内人士",
        -9.802194808565506
      ],
      [
        "整合",
        -9.802783058012384
      ],
      [
        "这次",
        -9.803244817770423
      ],
      [
        "600",
        -9.804005675163294
      ],
      [
        "】",
        -9.804169588780656
      ],
      [
        "旅行",
        -9.805301834147697
      ],
      [
        "▁peo",
        -9.805309543367857
      ],
      [
        "丈夫",
        -9.80542421467107
      ],
      [
        "爆发",
        -9.806116186930035
      ],
      [
        "各类",
        -9.80677490584561
      ],
      [
        "制定",
        -9.806832333321582
      ],
      [
        "公司的",
        -9.806979975060004
      ],
      [
        "灰",
        -9.807131584361995
      ],
      [
        "务",
        -9.80729363453423
      ],
      [
        "历史上",
        -9.80760732305786
      ],
      [
        "挂",
        -9.80819427257056
      ],
      [
        "接触",
        -9.808301863567593
      ],
      [
        "已被",
        -9.808306620833466
      ],
      [
        "4月",
        -9.808524867880116
      ],
      [
        "销量",
        -9.808776678316809
      ],
      [
        ",要求",
        -9.809836645486332
      ],
      [
        "工作。",
        -9.810429289372626
      ],
      [
        "迁",
        -9.810484246750216
      ],
      [
        "始",
        -9.810683994537737
      ],
      [
        "通知",
        -9.810750710388993
      ],
      [
        "本身",
        -9.811547974407649
      ],
      [
        "▁m",
        -9.812109793573836
      ],
      [
        "安徽",
        -9.81223955801036
      ],
      [
        "译",
        -9.81333018290186
      ],
      [
        "策略",
        -9.813716267584716
      ],
      [
        "遇到",
        -9.813988614567922
      ],
      [
        "弗",
        -9.814547058485148
      ],
      [
        "让人",
        -9.81457587151614
      ],
      [
        "s,",
        -9.81488235699894
      ],
      [
        "。然而",
        -9.815427886308251
      ],
      [
        "7月",
        -9.815493133105043
      ],
      [
        "承诺",
        -9.816013301856696
      ],
      [
        "新疆",
        -9.81647549057046
      ],
      [
        "桂",
        -9.816596853071912
      ],
      [
        "控股",
        -9.817272970725924
      ],
      [
        "内地",
        -9.817698839391571
      ],
      [
        "探",
        -9.818598990566342
      ],
      [
        "芬",
        -9.81896396288545
      ],
      [
        "地区的",
        -9.819932589460027
      ],
      [
        "2011",
        -9.82021434551208
      ],
      [
        "(A",
        -9.820280005605968
      ],
      [
        "国家队",
        -9.820287745733769
      ],
      [
        "落实",
        -9.820785208351442
      ],
      [
        "当年",
        -9.82085938069162
      ],
      [
        "非洲",
        -9.821619086694929
      ],
      [
        "工作,",
        -9.821685261914403
      ],
      [
        "▁cha",
        -9.821945833198168
      ],
      [
        "逐步",
        -9.82220700593792
      ],
      [
        "运营商",
        -9.822271678162856
      ],
      [
        "流行",
        -9.822331349608936
      ],
      [
        "两年",
        -9.822395969975462
      ],
      [
        "图书馆",
        -9.822842908478597
      ],
      [
        "镜",
        -9.823264459058008
      ],
      [
        "刺",
        -9.824283084977116
      ],
      [
        "海洋",
        -9.824376528468546
      ],
      [
        "境",
        -9.825127641222606
      ],
      [
        "损失",
        -9.8254296699612
      ],
      [
        "森林",
        -9.825546672359469
      ],
      [
        "河北",
        -9.825911718857476
      ],
      [
        "深入",
        -9.82623632486061
      ],
      [
        "的时间",
        -9.82690233714056
      ],
      [
        "不得",
        -9.82696534331975
      ],
      [
        "机会",
        -9.827053752760053
      ],
      [
        "入选",
        -9.8276786966569
      ],
      [
        "货币",
        -9.828152806122356
      ],
      [
        "探索",
        -9.828226613786226
      ],
      [
        "卫星",
        -9.828747069066088
      ],
      [
        "群体",
        -9.829270046756976
      ],
      [
        "的一部分",
        -9.829338371226791
      ],
      [
        "出了",
        -9.82963550304918
      ],
      [
        "的情况下",
        -9.830101213841308
      ],
      [
        "依法",
        -9.830703029462068
      ],
      [
        "对手",
        -9.83073318626791
      ],
      [
        "最早",
        -9.83092558649112
      ],
      [
        "3个",
        -9.831315203564255
      ],
      [
        "刻",
        -9.83132024757729
      ],
      [
        "进攻",
        -9.831405050951334
      ],
      [
        "震",
        -9.831852395202109
      ],
      [
        "贴",
        -9.832275454835996
      ],
      [
        "弘",
        -9.8325183442735
      ],
      [
        "茂",
        -9.83252287597234
      ],
      [
        "上线",
        -9.832777724932766
      ],
      [
        "分布",
        -9.832885888468802
      ],
      [
        "2019",
        -9.832914791755297
      ],
      [
        "线上",
        -9.833347974274217
      ],
      [
        "会员",
        -9.834095427707396
      ],
      [
        "昭",
        -9.834450358306569
      ],
      [
        "球会",
        -9.835539326193627
      ],
      [
        "以前",
        -9.835958185160765
      ],
      [
        "陶",
        -9.836519670273027
      ],
      [
        "定位",
        -9.83688438013056
      ],
      [
        "47",
        -9.836907771449289
      ],
      [
        "郑州",
        -9.83727098580163
      ],
      [
        "》中",
        -9.837297622616818
      ],
      [
        "容易",
        -9.837668938081496
      ],
      [
        "相信",
        -9.837771512321575
      ],
      [
        "亏损",
        -9.837859193241009
      ],
      [
        "发改委",
        -9.838282385139506
      ],
      [
        "na",
        -9.838522780214888
      ],
      [
        "爆",
        -9.83855672968736
      ],
      [
        "墨",
        -9.838819586536038
      ],
      [
        "习近平",
        -9.83882016076766
      ],
      [
        "150",
        -9.83889974200176
      ],
      [
        "状态",
        -9.838935353000023
      ],
      [
        "播出",
        -9.839056163377055
      ],
      [
        "预测",
        -9.839228995122232
      ],
      [
        "ally",
        -9.839400040819086
      ],
      [
        "保证",
        -9.83967289673921
      ],
      [
        "症",
        -9.83979161449834
      ],
      [
        "出来",
        -9.83990734507912
      ],
      [
        "上海市",
        -9.840225743178268
      ],
      [
        "敌",
        -9.840709551749612
      ],
      [
        "村民",
        -9.84107042017561
      ],
      [
        "克斯",
        -9.841383625619722
      ],
      [
        "400",
        -9.841524985881696
      ],
      [
        "24日",
        -9.841611810618046
      ],
      [
        "返回",
        -9.841697345505835
      ],
      [
        "立即",
        -9.841729264359182
      ],
      [
        "注意",
        -9.841994706914916
      ],
      [
        "more",
        -9.842259911138235
      ],
      [
        "文章",
        -9.842303853453783
      ],
      [
        "动作",
        -9.842427505463665
      ],
      [
        "预",
        -9.842471301299597
      ],
      [
        "四年",
        -9.84247805154343
      ],
      [
        "宜",
        -9.843036906250246
      ],
      [
        "第4",
        -9.843707808520634
      ],
      [
        "22日",
        -9.843867804076678
      ],
      [
        "第2",
        -9.844427660339868
      ],
      [
        "金属",
        -9.844461319708596
      ],
      [
        "协助",
        -9.844501569232962
      ],
      [
        "宗教",
        -9.844861297382089
      ],
      [
        "year",
        -9.844911844462896
      ],
      [
        ",要",
        -9.8451765452843
      ],
      [
        "▁so",
        -9.845853753457336
      ],
      [
        "直播",
        -9.846174457033507
      ],
      [
        ",比如",
        -9.846226397049591
      ],
      [
        "势",
        -9.846320038583409
      ],
      [
        "宾",
        -9.846359506981551
      ],
      [
        "因素",
        -9.846536086384242
      ],
      [
        "),是",
        -9.8472635834079
      ],
      [
        "湖北",
        -9.847274572274603
      ],
      [
        "念",
        -9.848140623847664
      ],
      [
        "楼市",
        -9.848242583913205
      ],
      [
        "公告",
        -9.848388679710844
      ],
      [
        "杂",
        -9.848454130299604
      ],
      [
        ",那么",
        -9.848574491799
      ],
      [
        "至201",
        -9.848966122800876
      ],
      [
        "age",
        -9.849641097534809
      ],
      [
        "知识",
        -9.850533052464892
      ],
      [
        "券商",
        -9.850746527586416
      ],
      [
        "分子",
        -9.851023434057964
      ],
      [
        "几个",
        -9.851727245176036
      ],
      [
        "随后",
        -9.851865108240702
      ],
      [
        "付",
        -9.852141427510478
      ],
      [
        "准",
        -9.852336352037868
      ],
      [
        ",直到",
        -9.852531774479653
      ],
      [
        "股市",
        -9.85320966442612
      ],
      [
        "评估",
        -9.853696728580443
      ],
      [
        "维尔",
        -9.854260695515572
      ],
      [
        ",随后",
        -9.854783933303985
      ],
      [
        "移",
        -9.855047892230385
      ],
      [
        "维护",
        -9.855477976907173
      ],
      [
        "问题。",
        -9.85559095167524
      ],
      [
        "年轻",
        -9.855666321748508
      ],
      [
        "真的",
        -9.855715516448832
      ],
      [
        "成为了",
        -9.855902981629612
      ],
      [
        "一切",
        -9.856144278794943
      ],
      [
        "更新",
        -9.856210270449711
      ],
      [
        "做好",
        -9.856324036356025
      ],
      [
        "39",
        -9.856697844935672
      ],
      [
        "的发展",
        -9.856822852888028
      ],
      [
        "王国",
        -9.856883459618372
      ],
      [
        "享受",
        -9.856999240225624
      ],
      [
        "球场",
        -9.857278057812064
      ],
      [
        "形象",
        -9.85733871768615
      ],
      [
        "隧道",
        -9.857927718571318
      ],
      [
        "奉",
        -9.857928162594783
      ],
      [
        "三大",
        -9.85803625474776
      ],
      [
        "另一",
        -9.858271460526849
      ],
      [
        "农民",
        -9.858329798691113
      ],
      [
        "紧",
        -9.858705104509673
      ],
      [
        "自身",
        -9.858920110344878
      ],
      [
        "周边",
        -9.859000049190849
      ],
      [
        "乳",
        -9.85913068536169
      ],
      [
        "智能手机",
        -9.85913454218334
      ],
      [
        "部署",
        -9.859421305856491
      ],
      [
        "举报",
        -9.859436025317518
      ],
      [
        "餐厅",
        -9.859802546667048
      ],
      [
        "购",
        -9.859853175897715
      ],
      [
        "南方",
        -9.85999654790747
      ],
      [
        ";\n*",
        -9.860153507342554
      ],
      [
        "27日",
        -9.860311762945868
      ],
      [
        "瓶",
        -9.860380962448492
      ],
      [
        "岳",
        -9.860638090702846
      ],
      [
        "董",
        -9.860855394124007
      ],
      [
        "赏",
        -9.8609768424969
      ],
      [
        "75",
        -9.86145198459815
      ],
      [
        "将于",
        -9.861472005506725
      ],
      [
        "一段",
        -9.86185748447161
      ],
      [
        "妻",
        -9.861963497510532
      ],
      [
        "id",
        -9.86209491160404
      ],
      [
        "▁Re",
        -9.86225899210466
      ],
      [
        "公务员",
        -9.86241531219547
      ],
      [
        "菲律宾",
        -9.862439531024252
      ],
      [
        "▁M",
        -9.862946997632951
      ],
      [
        "(C",
        -9.863001358089706
      ],
      [
        "谷歌",
        -9.863153308873777
      ],
      [
        "2020",
        -9.863182396817336
      ],
      [
        "身上",
        -9.863340770142576
      ],
      [
        "赢得",
        -9.863935275943462
      ],
      [
        "垃圾",
        -9.864345280674264
      ],
      [
        "举行的",
        -9.86459921051693
      ],
      [
        "掌",
        -9.864725106320206
      ],
      [
        "渡",
        -9.864750624977807
      ],
      [
        "物种",
        -9.864861424979358
      ],
      [
        "亭",
        -9.865239483915811
      ],
      [
        "墓",
        -9.86568578235512
      ],
      [
        "社交",
        -9.865823792167388
      ],
      [
        "23日",
        -9.866038136528855
      ],
      [
        "一度",
        -9.86619768294863
      ],
      [
        "12日",
        -9.86669036585411
      ],
      [
        "い",
        -9.867151067593436
      ],
      [
        "v",
        -9.867630760272732
      ],
      [
        "▁sta",
        -9.868185482433525
      ],
      [
        "晚上",
        -9.868306693673986
      ],
      [
        "试图",
        -9.868898165984708
      ],
      [
        "凉",
        -9.869264887033376
      ],
      [
        "统",
        -9.86966980994069
      ],
      [
        "强调",
        -9.870044034104003
      ],
      [
        "4个",
        -9.870368903718829
      ],
      [
        "控",
        -9.870637294360254
      ],
      [
        "柯",
        -9.870639665845712
      ],
      [
        "5月",
        -9.870734692168217
      ],
      [
        "诚",
        -9.8708323973065
      ],
      [
        "互动",
        -9.87087418429875
      ],
      [
        "摄影",
        -9.871388632538183
      ],
      [
        "财务",
        -9.871409216335786
      ],
      [
        "政治人物",
        -9.871526344788894
      ],
      [
        "锦标赛",
        -9.87205507030652
      ],
      [
        "196",
        -9.872615948137106
      ],
      [
        "一点",
        -9.872805148157296
      ],
      [
        "淘宝",
        -9.87298654874748
      ],
      [
        "两次",
        -9.873402423356064
      ],
      [
        "江西",
        -9.873421082202592
      ],
      [
        ",字",
        -9.873556551085564
      ],
      [
        "理解",
        -9.87407234237197
      ],
      [
        "呈现",
        -9.87410919496122
      ],
      [
        "出行",
        -9.874251940847978
      ],
      [
        "息",
        -9.874734542940374
      ],
      [
        "英雄",
        -9.875424032004265
      ],
      [
        "播",
        -9.875452629868342
      ],
      [
        "很难",
        -9.875675866038533
      ],
      [
        ",之后",
        -9.876447076261268
      ],
      [
        "乃",
        -9.876671977615551
      ],
      [
        "装备",
        -9.87673664634422
      ],
      [
        "青岛",
        -9.876823252811214
      ],
      [
        "▁per",
        -9.876870690460589
      ],
      [
        "廷",
        -9.87695724743295
      ],
      [
        "彦",
        -9.876988323636436
      ],
      [
        "登陆",
        -9.877115724956925
      ],
      [
        "。同时,",
        -9.87736004447147
      ],
      [
        "对象",
        -9.877793098842956
      ],
      [
        "的「",
        -9.878056582879047
      ],
      [
        "允许",
        -9.878121892548574
      ],
      [
        "三星",
        -9.878769459781356
      ],
      [
        "。194",
        -9.878843931821446
      ],
      [
        "墙",
        -9.878878612737871
      ],
      [
        "失败",
        -9.879349671107182
      ],
      [
        "塘",
        -9.879589058404054
      ],
      [
        "司法",
        -9.879886214522948
      ],
      [
        "17日",
        -9.880334371159869
      ],
      [
        "9月",
        -9.88098926822635
      ],
      [
        "11日",
        -9.88172064253569
      ],
      [
        "陆续",
        -9.882119935261718
      ],
      [
        "年龄",
        -9.882140993646306
      ],
      [
        "在此",
        -9.88243083800671
      ],
      [
        "ine",
        -9.882729270740764
      ],
      [
        "怪",
        -9.882789777160932
      ],
      [
        "\n在",
        -9.883706904764685
      ],
      [
        "ur",
        -9.883717616818512
      ],
      [
        "曝光",
        -9.883733320262971
      ],
      [
        "济南",
        -9.884159845876642
      ],
      [
        "194",
        -9.884645815745293
      ],
      [
        "启",
        -9.885084849904649
      ],
      [
        "ge",
        -9.885091583981731
      ],
      [
        "约翰·",
        -9.885266578614104
      ],
      [
        "重建",
        -9.88586052278528
      ],
      [
        "最多",
        -9.886120105686093
      ],
      [
        "本地",
        -9.88664292209222
      ],
      [
        "原本",
        -9.886916626950422
      ],
      [
        "▁De",
        -9.887109659519352
      ],
      [
        "大桥",
        -9.888125447573511
      ],
      [
        "以后",
        -9.888261068027791
      ],
      [
        "的问题",
        -9.88843039723074
      ],
      [
        "▁one",
        -9.88960992864358
      ],
      [
        "最初",
        -9.889711107030932
      ],
      [
        "教学",
        -9.890576586929289
      ],
      [
        "一同",
        -9.890754569266536
      ],
      [
        "财富",
        -9.891257269554352
      ],
      [
        "sion",
        -9.891526874936028
      ],
      [
        "▁wh",
        -9.891732614817355
      ],
      [
        "(学名:",
        -9.891753621165794
      ],
      [
        "监测",
        -9.892209870563253
      ],
      [
        "模型",
        -9.892293557747202
      ],
      [
        "牙",
        -9.892535677662154
      ],
      [
        "加大",
        -9.89293659464265
      ],
      [
        "狼",
        -9.893524218134138
      ],
      [
        "样",
        -9.893644693937295
      ],
      [
        "这么",
        -9.893671527486626
      ],
      [
        "iPho",
        -9.894264546414089
      ],
      [
        "地图",
        -9.894280041160998
      ],
      [
        "21日",
        -9.894700181957974
      ],
      [
        ",结果",
        -9.894789286048828
      ],
      [
        "总部",
        -9.894942166393324
      ],
      [
        "太平洋",
        -9.895221101133892
      ],
      [
        "披露",
        -9.895471651776324
      ],
      [
        "电影《",
        -9.895626433093446
      ],
      [
        "总经理",
        -9.896403782301686
      ],
      [
        "档",
        -9.896663091296652
      ],
      [
        "开始,",
        -9.89874190372833
      ],
      [
        "大学生",
        -9.899149594670853
      ],
      [
        "2010",
        -9.899596344127149
      ],
      [
        "锦",
        -9.900267342499854
      ],
      [
        "恶",
        -9.900498078348068
      ],
      [
        "瑞士",
        -9.90079501844684
      ],
      [
        "免",
        -9.900909253290852
      ],
      [
        "岗",
        -9.900948711024585
      ],
      [
        "14日",
[...]
